{
  "version": "1.0",
  "truncation": null,
  "padding": null,
  "added_tokens": [
    {
      "id": 0,
      "content": "<pad>",
      "single_word": false,
      "lstrip": false,
      "rstrip": false,
      "normalized": false,
      "special": true
    },
    {
      "id": 1,
      "content": "<unk>",
      "single_word": false,
      "lstrip": false,
      "rstrip": false,
      "normalized": false,
      "special": true
    },
    {
      "id": 2,
      "content": "<s>",
      "single_word": false,
      "lstrip": false,
      "rstrip": false,
      "normalized": false,
      "special": true
    },
    {
      "id": 3,
      "content": "</s>",
      "single_word": false,
      "lstrip": false,
      "rstrip": false,
      "normalized": false,
      "special": true
    }
  ],
  "normalizer": null,
  "pre_tokenizer": {
    "type": "ByteLevel",
    "add_prefix_space": false,
    "trim_offsets": true,
    "use_regex": true
  },
  "post_processor": {
    "type": "TemplateProcessing",
    "single": [
      {
        "Sequence": {
          "id": "A",
          "type_id": 0
        }
      }
    ],
    "pair": [
      {
        "Sequence": {
          "id": "A",
          "type_id": 0
        }
      },
      {
        "Sequence": {
          "id": "B",
          "type_id": 1
        }
      }
    ],
    "special_tokens": {}
  },
  "decoder": {
    "type": "ByteLevel",
    "add_prefix_space": true,
    "trim_offsets": true,
    "use_regex": true
  },
  "model": {
    "type": "BPE",
    "dropout": null,
    "unk_token": "<unk>",
    "continuing_subword_prefix": null,
    "end_of_word_suffix": null,
    "fuse_unk": false,
    "byte_fallback": false,
    "ignore_merges": false,
    "vocab": {
      "<pad>": 0,
      "<unk>": 1,
      "<s>": 2,
      "</s>": 3,
      "!": 4,
      "\"": 5,
      "#": 6,
      "$": 7,
      "%": 8,
      "&": 9,
      "'": 10,
      "(": 11,
      ")": 12,
      "*": 13,
      "+": 14,
      ",": 15,
      "-": 16,
      ".": 17,
      "/": 18,
      "0": 19,
      "1": 20,
      "2": 21,
      "3": 22,
      "4": 23,
      "5": 24,
      "6": 25,
      "7": 26,
      "8": 27,
      "9": 28,
      ":": 29,
      ";": 30,
      "<": 31,
      "=": 32,
      ">": 33,
      "?": 34,
      "@": 35,
      "A": 36,
      "B": 37,
      "C": 38,
      "D": 39,
      "E": 40,
      "F": 41,
      "G": 42,
      "H": 43,
      "I": 44,
      "J": 45,
      "K": 46,
      "L": 47,
      "M": 48,
      "N": 49,
      "O": 50,
      "P": 51,
      "Q": 52,
      "R": 53,
      "S": 54,
      "T": 55,
      "U": 56,
      "V": 57,
      "W": 58,
      "X": 59,
      "Y": 60,
      "Z": 61,
      "[": 62,
      "\\": 63,
      "]": 64,
      "^": 65,
      "_": 66,
      "`": 67,
      "a": 68,
      "b": 69,
      "c": 70,
      "d": 71,
      "e": 72,
      "f": 73,
      "g": 74,
      "h": 75,
      "i": 76,
      "j": 77,
      "k": 78,
      "l": 79,
      "m": 80,
      "n": 81,
      "o": 82,
      "p": 83,
      "q": 84,
      "r": 85,
      "s": 86,
      "t": 87,
      "u": 88,
      "v": 89,
      "w": 90,
      "x": 91,
      "y": 92,
      "z": 93,
      "{": 94,
      "|": 95,
      "}": 96,
      "~": 97,
      "¡": 98,
      "¢": 99,
      "£": 100,
      "¤": 101,
      "¥": 102,
      "¦": 103,
      "§": 104,
      "¨": 105,
      "©": 106,
      "ª": 107,
      "«": 108,
      "¬": 109,
      "®": 110,
      "¯": 111,
      "°": 112,
      "±": 113,
      "²": 114,
      "³": 115,
      "´": 116,
      "µ": 117,
      "¶": 118,
      "·": 119,
      "¸": 120,
      "¹": 121,
      "º": 122,
      "»": 123,
      "¼": 124,
      "½": 125,
      "¾": 126,
      "¿": 127,
      "Â": 128,
      "Ã": 129,
      "Ä": 130,
      "Å": 131,
      "Ç": 132,
      "É": 133,
      "Ê": 134,
      "Ë": 135,
      "Ì": 136,
      "Î": 137,
      "Ï": 138,
      "Ð": 139,
      "Ñ": 140,
      "×": 141,
      "Ø": 142,
      "Ù": 143,
      "à": 144,
      "á": 145,
      "â": 146,
      "ã": 147,
      "ä": 148,
      "å": 149,
      "æ": 150,
      "ç": 151,
      "è": 152,
      "é": 153,
      "ê": 154,
      "ë": 155,
      "ì": 156,
      "í": 157,
      "î": 158,
      "ï": 159,
      "ð": 160,
      "ó": 161,
      "ā": 162,
      "Ă": 163,
      "ă": 164,
      "ą": 165,
      "Ć": 166,
      "Ĉ": 167,
      "ĉ": 168,
      "Ċ": 169,
      "ċ": 170,
      "ď": 171,
      "Đ": 172,
      "ē": 173,
      "Ĕ": 174,
      "ę": 175,
      "Ě": 176,
      "ě": 177,
      "Ĝ": 178,
      "ğ": 179,
      "Ġ": 180,
      "ġ": 181,
      "Ģ": 182,
      "ģ": 183,
      "Ĥ": 184,
      "ĥ": 185,
      "Ħ": 186,
      "ħ": 187,
      "Ĩ": 188,
      "ĩ": 189,
      "Ī": 190,
      "ī": 191,
      "Ĭ": 192,
      "ĭ": 193,
      "Į": 194,
      "į": 195,
      "İ": 196,
      "ı": 197,
      "Ĳ": 198,
      "ĳ": 199,
      "Ĵ": 200,
      "ĵ": 201,
      "Ķ": 202,
      "ķ": 203,
      "ĸ": 204,
      "Ĺ": 205,
      "ĺ": 206,
      "Ļ": 207,
      "ļ": 208,
      "Ľ": 209,
      "ľ": 210,
      "Ŀ": 211,
      "ŀ": 212,
      "Ł": 213,
      "ł": 214,
      "Ń": 215,
      "ä¸": 216,
      "ï¼": 217,
      "ãĢ": 218,
      "çļ": 219,
      "çļĦ": 220,
      "ï¼Į": 221,
      "ãĢĤ": 222,
      "äº": 223,
      "ä»": 224,
      "åı": 225,
      "æľ": 226,
      "im": 227,
      "|>": 228,
      "<|": 229,
      "è¿": 230,
      "æĪ": 231,
      "åħ": 232,
      "è¯": 233,
      "å¤": 234,
      "æĸ": 235,
      "ä¸Ģ": 236,
      "ä½": 237,
      "æĺ": 238,
      "çĶ": 239,
      "å®": 240,
      "åĪ": 241,
      "åľ": 242,
      "åĴ": 243,
      "åĲ": 244,
      "åĴĮ": 245,
      "åĬ": 246,
      "ç»": 247,
      "ä¹": 248,
      "æĺ¯": 249,
      "ar": 250,
      "en": 251,
      "st": 252,
      "art": 253,
      "end": 254,
      "start": 255,
      "åŃ": 256,
      "å°": 257,
      "ä¸ª": 258,
      "ä»¥": 259,
      "ãĢģ": 260,
      "æĪĳ": 261,
      "è®": 262,
      "ãĢĤ<|": 263,
      "åľ¨": 264,
      "äºº": 265,
      "ĥ½": 266,
      "æľī": 267,
      "æĹ": 268,
      "Ġ<|": 269,
      "æĸĩ": 270,
      "åı¯": 271,
      "åĽ": 272,
      "ï¼ļ": 273,
      "éĩ": 274,
      "åº": 275,
      "äºĨ": 276,
      "ä¸Ń": 277,
      "æĿ": 278,
      "è¿Ļ": 279,
      "å¸": 280,
      "åĩ": 281,
      "å¹": 282,
      "éĢ": 283,
      "è¡": 284,
      "èĥ½": 285,
      "ä¼": 286,
      "çļĦæ": 287,
      "å·": 288,
      "é¢": 289,
      "è¦": 290,
      "åĨ": 291,
      "åĮ": 292,
      "è¦ģ": 293,
      "å¾": 294,
      "å¥": 295,
      "ä¸º": 296,
      "çī": 297,
      "éĹ": 298,
      "çİ": 299,
      "æı": 300,
      "ç§": 301,
      "å¯": 302,
      "è§": 303,
      "å½": 304,
      "çĶ¨": 305,
      "åį": 306,
      "å¼": 307,
      "çŃ": 308,
      "æŀ": 309,
      "ä¸į": 310,
      "çĶŁ": 311,
      "åı¯ä»¥": 312,
      "æī": 313,
      "æķ": 314,
      "æĢ": 315,
      "éĿ": 316,
      "æŃ": 317,
      "ä»¬": 318,
      "æĬ": 319,
      "ä¿": 320,
      "æł": 321,
      "èĢ": 322,
      "âĢ": 323,
      "ä¸ĭ": 324,
      "æ³": 325,
      "æıĲ": 326,
      "ä¸Ģä¸ª": 327,
      "çĽ": 328,
      "æĿ¥": 329,
      "æĻ": 330,
      "æĪĲ": 331,
      "åİ": 332,
      "åĵ": 333,
      "æ°": 334,
      "¦Ĥ": 335,
      "èĩ": 336,
      "æĽ": 337,
      "åŃĲ": 338,
      "ç«": 339,
      "æĦ": 340,
      "åĩº": 341,
      "æĥ": 342,
      "çĲ": 343,
      "è¡Į": 344,
      "åĳ": 345,
      "æĭ": 346,
      "å¦Ĥ": 347,
      "åŃ¦": 348,
      "åĪ°": 349,
      "ä»ĸ": 350,
      "ä¾": 351,
      "å¿": 352,
      "æľ¬": 353,
      "æİ": 354,
      "ä½ł": 355,
      "é¢ĺ": 356,
      "æĶ": 357,
      "æĹ¶": 358,
      "äºİ": 359,
      "ä¸Ĭ": 360,
      "åľ°": 361,
      "å¥½": 362,
      "æµ": 363,
      "æĽ´": 364,
      "çŃī": 365,
      "æį": 366,
      "ï¼Ł": 367,
      "è´": 368,
      "å¯¹": 369,
      "å±": 370,
      "å¤§": 371,
      "çº": 372,
      "å¤ļ": 373,
      "æĸ¹": 374,
      "åħ³": 375,
      "ç®": 376,
      "æ¯": 377,
      "å·¥": 378,
      "èµ": 379,
      "äºĽ": 380,
      "èĩª": 381,
      "è¾": 382,
      "å¤©": 383,
      "å°ı": 384,
      "ä¼ļ": 385,
      "åı¥": 386,
      "åĬ¨": 387,
      "é£": 388,
      "ç»Ļ": 389,
      "åĪĨ": 390,
      "çī©": 391,
      "ä½ľ": 392,
      "åıĳ": 393,
      "å®ļ": 394,
      "æ¬": 395,
      "æ´": 396,
      "ç±": 397,
      "æĤ": 398,
      "ç«ł": 399,
      "åħ¶": 400,
      "éĿ¢": 401,
      "æĮ": 402,
      "å¹¶": 403,
      "æŀľ": 404,
      "æĸĩç«ł": 405,
      "æľĢ": 406,
      "éľ": 407,
      "æ¸": 408,
      "æį®": 409,
      "åŁ": 410,
      "æ³ķ": 411,
      "å°Ĩ": 412,
      "æĸ°": 413,
      "éĹ®": 414,
      "è¿Ľ": 415,
      "éĻ": 416,
      "çĤ": 417,
      "çİ°": 418,
      "åģ": 419,
      "åĬł": 420,
      "å®ĥ": 421,
      "çļĦç": 422,
      "æ²": 423,
      "ä½ĵ": 424,
      "è¯Ń": 425,
      "éĶ": 426,
      "çĦ": 427,
      "èī": 428,
      "ä½¿": 429,
      "ä¿Ŀ": 430,
      "è¯·": 431,
      "ç±»": 432,
      "è¿ĩ": 433,
      "æĪĳä»¬": 434,
      "åºĶ": 435,
      "å½±": 436,
      "éĩį": 437,
      "ç§į": 438,
      "éģ": 439,
      "çľ": 440,
      "çĲĨ": 441,
      "æĪĸ": 442,
      "é«": 443,
      "åĬĽ": 444,
      "éľĢ": 445,
      "æĺİ": 446,
      "æĻº": 447,
      "æ±": 448,
      "è½": 449,
      "âĢĿ": 450,
      "è¶": 451,
      "éĺ": 452,
      "å®¶": 453,
      "åĲĮ": 454,
      "é«ĺ": 455,
      "ä¸»": 456,
      "æľº": 457,
      "æĸĩæľ¬": 458,
      "åĮĸ": 459,
      "å¸¸": 460,
      "çĶµ": 461,
      "æĤ¨": 462,
      "çĦ¶": 463,
      "âĢľ": 464,
      "æĢ§": 465,
      "æĻºèĥ½": 466,
      "æĦŁ": 467,
      "åıĸ": 468,
      "ä¹Ī": 469,
      "ä¹Ł": 470,
      "åĽł": 471,
      "åĸ": 472,
      "æķ°": 473,
      "åĵģ": 474,
      "è¯į": 475,
      "æĬĢ": 476,
      "çŁ": 477,
      "åī": 478,
      "åı¥åŃĲ": 479,
      "æģ": 480,
      "å¾Ĺ": 481,
      "æ°Ķ": 482,
      "å¾Ī": 483,
      "åĽ½": 484,
      "ç¾": 485,
      "ç³": 486,
      "è°": 487,
      "èĬ": 488,
      "éĢļ": 489,
      "éľĢè¦ģ": 490,
      "è§£": 491,
      "çĤ¹": 492,
      "æĥħ": 493,
      "éĹ®é¢ĺ": 494,
      "åº¦": 495,
      "ä¹ĭ": 496,
      "å¢": 497,
      "ç©": 498,
      "åĲį": 499,
      "ä»İ": 500,
      "ä»¥ä¸ĭ": 501,
      "ä¾Ľ": 502,
      "å»": 503,
      "ç»ı": 504,
      "ç¯": 505,
      "åħ¬": 506,
      "çĿ": 507,
      "è¡¨": 508,
      "æľ¯": 509,
      "éĹ´": 510,
      "å¹´": 511,
      "èĤ": 512,
      "èĢĮ": 513,
      "åĨĻ": 514,
      "ä¹ł": 515,
      "èī²": 516,
      "çĸ": 517,
      "äººå·¥": 518,
      "åĢ": 519,
      "ä¿¡": 520,
      "æıĲä¾Ľ": 521,
      "å®ŀ": 522,
      "æł¹": 523,
      "éĩı": 524,
      "äººå·¥æĻºèĥ½": 525,
      "æ¡": 526,
      "è®¡": 527,
      "ä¸ĢäºĽ": 528,
      "çİ¯": 529,
      "æĦı": 530,
      "éĤ": 531,
      "å¿ĥ": 532,
      "ç¾İ": 533,
      "ç¤": 534,
      "ç¨": 535,
      "èĢħ": 536,
      "æŁ": 537,
      "è¿Ļä¸ª": 538,
      "åĲĪ": 539,
      "æŃ¤": 540,
      "åİ»": 541,
      "å»º": 542,
      "ç¯ĩ": 543,
      "æīĢ": 544,
      "è¿Ľè¡Į": 545,
      "åĲİ": 546,
      "åĮħ": 547,
      "ä½Ĩ": 548,
      "çĲĥ": 549,
      "äºĭ": 550,
      "è¯¥": 551,
      "çĽ¸": 552,
      "æĥ³": 553,
      "æł¹æį®": 554,
      "è¿ĺ": 555,
      "é¦": 556,
      "éĩĮ": 557,
      "åŀ": 558,
      "ä¸ļ": 559,
      "è¿°": 560,
      "æ®": 561,
      "ç½": 562,
      "éĥ½": 563,
      "å½ĵ": 564,
      "èĲ": 565,
      "åħ¥": 566,
      "æ´»": 567,
      "ç¡": 568,
      "çķ": 569,
      "å¼ı": 570,
      "ä¸İ": 571,
      "éĿŀ": 572,
      "æģ¯": 573,
      "é£Ł": 574,
      "åħ¨": 575,
      "éĽ": 576,
      "å¤ĸ": 577,
      "å±ķ": 578,
      "æŃ£": 579,
      "éķ": 580,
      "é¡": 581,
      "æ¯Ķ": 582,
      "ä»Ģ": 583,
      "çĿĢ": 584,
      "æ°´": 585,
      "éĥ": 586,
      "æ·": 587,
      "ç¼": 588,
      "ä½¿çĶ¨": 589,
      "ç´": 590,
      "å¸Ĥ": 591,
      "çī¹": 592,
      "åŃ¦ä¹ł": 593,
      "è·": 594,
      "èģ": 595,
      "åĸľ": 596,
      "åıĺ": 597,
      "ä»Ģä¹Ī": 598,
      "å¼Ģ": 599,
      "éļ": 600,
      "èį": 601,
      "æĺ¯ä¸Ģ": 602,
      "åħ·": 603,
      "çľĭ": 604,
      "èĭ": 605,
      "æĹ¥": 606,
      "è¢": 607,
      "æ®µ": 608,
      "å¸®": 609,
      "æ¬¢": 610,
      "è®©": 611,
      "çĶŁæĪĲ": 612,
      "åĿ": 613,
      "éģĵ": 614,
      "åĬ©": 615,
      "è¯´": 616,
      "ç¬": 617,
      "ç¨ĭ": 618,
      "çĶµå½±": 619,
      "ç³»": 620,
      "åĪ¶": 621,
      "ç»ĵ": 622,
      "éĤ£": 623,
      "æ¡Ī": 624,
      "çĥ": 625,
      "èµ·": 626,
      "æĹł": 627,
      "æĭ¬": 628,
      "åĨħ": 629,
      "åķ": 630,
      "ç¡®": 631,
      "æĬĢæľ¯": 632,
      "çĭ": 633,
      "åīį": 634,
      "éĿŀå¸¸": 635,
      "éĥ¨": 636,
      "éķ¿": 637,
      "åıĬ": 638,
      "è¯Ŀ": 639,
      "æĮģ": 640,
      "èº": 641,
      "ç®Ģ": 642,
      "ç§ĳ": 643,
      "å°ĳ": 644,
      "å¥½çļĦ": 645,
      "ä¿¡æģ¯": 646,
      "ç®Ĺ": 647,
      "é£İ": 648,
      "è¨": 649,
      "åŀĭ": 650,
      "åĻ": 651,
      "ä½ķ": 652,
      "éĢĤ": 653,
      "åģ¥": 654,
      "æıĲåıĸ": 655,
      "çĽ®": 656,
      "èº«": 657,
      "äº§": 658,
      "éĢī": 659,
      "åĽŀ": 660,
      "è®®": 661,
      "é¢Ĩ": 662,
      "å¤Ħ": 663,
      "åĻ¨": 664,
      "åŃĹ": 665,
      "ç»Ļå®ļ": 666,
      "åĮ»": 667,
      "çŃĶ": 668,
      "éħ": 669,
      "åįķ": 670,
      "åĬ¡": 671,
      "æĶ¹": 672,
      "ä»£": 673,
      "ä¸ŃçļĦ": 674,
      "èĻ": 675,
      "çĪ": 676,
      "é¥": 677,
      "éŁ": 678,
      "åĪ«": 679,
      "åľº": 680,
      "æ»": 681,
      "æ¯ı": 682,
      "å¢ĥ": 683,
      "è¨Ģ": 684,
      "åĸľæ¬¢": 685,
      "å¦Ĥæŀľ": 686,
      "çĻ": 687,
      "åıĹ": 688,
      "æĳ": 689,
      "æİ¨": 690,
      "ä¸¤": 691,
      "åºĶçĶ¨": 692,
      "è¢«": 693,
      "æīĭ": 694,
      "æľª": 695,
      "äº¤": 696,
      "æłĩ": 697,
      "çł": 698,
      "ç¯ĩæĸĩç«ł": 699,
      "åĮħæĭ¬": 700,
      "åŁŁ": 701,
      "æ¶": 702,
      "åĪ©": 703,
      "è´¨": 704,
      "èĪ": 705,
      "å·±": 706,
      "ä¸ī": 707,
      "æµ·": 708,
      "å§": 709,
      "åĪĽ": 710,
      "ä»»": 711,
      "å®¹": 712,
      "èĩªå·±": 713,
      "åı¯èĥ½": 714,
      "åıĳå±ķ": 715,
      "çĹ": 716,
      "æ¸¸": 717,
      "ä¾ĭ": 718,
      "ä»¶": 719,
      "ãĢĭ": 720,
      "ãĢĬ": 721,
      "çģ": 722,
      "å£": 723,
      "éĩįè¦ģ": 724,
      "å¹³": 725,
      "æ¨": 726,
      "æ²¡": 727,
      "ä½į": 728,
      "åĵį": 729,
      "ä»ĸä»¬": 730,
      "åĩı": 731,
      "æº": 732,
      "æĶ¾": 733,
      "è§Ĥ": 734,
      "é»": 735,
      "ç¥": 736,
      "äººç±»": 737,
      "åıª": 738,
      "è®º": 739,
      "æ±Ĥ": 740,
      "è®¾": 741,
      "ä¹Ĳ": 742,
      "éĢļè¿ĩ": 743,
      "åº·": 744,
      "é¢ĨåŁŁ": 745,
      "èĬĤ": 746,
      "æĢ»": 747,
      "çŁ¥": 748,
      "é©": 749,
      "éª": 750,
      "è¿ĻäºĽ": 751,
      "åĨ³": 752,
      "çĸĹ": 753,
      "æĸŃ": 754,
      "æ¼": 755,
      "æıı": 756,
      "åı¸": 757,
      "è¯Ĩ": 758,
      "å°±": 759,
      "ç»Ł": 760,
      "åİŁ": 761,
      "çİ¯å¢ĥ": 762,
      "åģ¥åº·": 763,
      "æĺŁ": 764,
      "æľŁ": 765,
      "éĶ®": 766,
      "æµģ": 767,
      "å½±åĵį": 768,
      "å»ºè®®": 769,
      "è¿Ļç¯ĩæĸĩç«ł": 770,
      "éŁ³": 771,
      "æķĪ": 772,
      "å¸®åĬ©": 773,
      "èĥ": 774,
      "ä¸ĸ": 775,
      "ä¹ī": 776,
      "å¤ª": 777,
      "åħ³éĶ®": 778,
      "èĦ": 779,
      "è½¦": 780,
      "éĶĻ": 781,
      "åħ³äºİ": 782,
      "å®ī": 783,
      "æĹ¶éĹ´": 784,
      "è£": 785,
      "æĽ´åĬł": 786,
      "æ·±": 787,
      "æĻ¯": 788,
      "çĶ±": 789,
      "å¼º": 790,
      "æŃ¥": 791,
      "ä¸»è¦ģ": 792,
      "èİ": 793,
      "æķ°æį®": 794,
      "åŁİ": 795,
      "æ¨¡": 796,
      "è¾¾": 797,
      "çĶŁæ´»": 798,
      "åģļ": 799,
      "æ²¡æľī": 800,
      "åĳĬ": 801,
      "æŀģ": 802,
      "å¸¦": 803,
      "è¯ķ": 804,
      "è±": 805,
      "åħ¬åı¸": 806,
      "æııè¿°": 807,
      "æĹħ": 808,
      "èı": 809,
      "åĲĹ": 810,
      "èĩªçĦ¶": 811,
      "å·²": 812,
      "å½¢": 813,
      "æľį": 814,
      "æĸĻ": 815,
      "ç²": 816,
      "çĮ": 817,
      "è¿Ĳ": 818,
      "ç¤¾": 819,
      "å¤Ł": 820,
      "ï¼Ľ": 821,
      "éĴ": 822,
      "æī¾": 823,
      "æł·": 824,
      "ä¹¦": 825,
      "ä¸įåĲĮ": 826,
      "å°ıæĺİ": 827,
      "æł¼": 828,
      "æľªæĿ¥": 829,
      "åĽłä¸º": 830,
      "ä»Ĭ": 831,
      "è¿ĳ": 832,
      "èĲ½": 833,
      "è¯Ńè¨Ģ": 834,
      "æºĲ": 835,
      "æ³¨": 836,
      "æĬ¤": 837,
      "èĬ±": 838,
      "åħī": 839,
      "é¢Ħ": 840,
      "å¥¹": 841,
      "åı£": 842,
      "é¤": 843,
      "åıĭ": 844,
      "æĢĿ": 845,
      "ç©º": 846,
      "åİĨ": 847,
      "çķĮ": 848,
      "æĭ©": 849,
      "å·¥ä½ľ": 850,
      "é¤Ĳ": 851,
      "éĢīæĭ©": 852,
      "æıĲé«ĺ": 853,
      "æľºåĻ¨": 854,
      "æĮĩ": 855,
      "ĺè¦ģ": 856,
      "å¦Ĥä½ķ": 857,
      "æ¬¡": 858,
      "éĢł": 859,
      "éĵ": 860,
      "æĪ·": 861,
      "é¦ĸ": 862,
      "çĪ±": 863,
      "çļĦæķ": 864,
      "ç½ĳ": 865,
      "åĲĦ": 866,
      "åĳ³": 867,
      "åķĨ": 868,
      "ç»Ħ": 869,
      "åĲĮæĹ¶": 870,
      "å¯¼": 871,
      "ä¼ł": 872,
      "è®¡ç®Ĺ": 873,
      "åĩł": 874,
      "æ¸ħ": 875,
      "åĳĺ": 876,
      "çº¢": 877,
      "ç¼ĸ": 878,
      "ä¸Ģä¸ĭ": 879,
      "å®ĥä»¬": 880,
      "æļ": 881,
      "æĸ¹å¼ı": 882,
      "çŁŃ": 883,
      "åĮº": 884,
      "åĪĹ": 885,
      "é¸": 886,
      "è¯Ĺ": 887,
      "éĩĳ": 888,
      "å¹¿": 889,
      "å¿«": 890,
      "åĵª": 891,
      "ç¦": 892,
      "èĢĥ": 893,
      "ç®¡": 894,
      "æĸ¹æ³ķ": 895,
      "ï¼ģ": 896,
      "åĲĳ": 897,
      "æ£": 898,
      "ç»ĻæĪĳ": 899,
      "çĹħ": 900,
      "ç¤º": 901,
      "éĺ³": 902,
      "å±±": 903,
      "ä»¥åıĬ": 904,
      "æľĪ": 905,
      "æĸ¹éĿ¢": 906,
      "åŁº": 907,
      "è®¤": 908,
      "åºĶè¯¥": 909,
      "æĺ¯ä¸Ģä¸ª": 910,
      "è°ĥ": 911,
      "åĩĨ": 912,
      "è§Ĩ": 913,
      "çĬ": 914,
      "ä¼ĺ": 915,
      "è¾ĵ": 916,
      "ä¾ĭå¦Ĥ": 917,
      "ä»·": 918,
      "çº¦": 919,
      "åĽłæŃ¤": 920,
      "æ¸©": 921,
      "çİ¯ä¿Ŀ": 922,
      "äººä»¬": 923,
      "å¤©æ°Ķ": 924,
      "ãĢĤâĢĿ": 925,
      "èĥ½å¤Ł": 926,
      "å¢ŀ": 927,
      "ç©¶": 928,
      "é¡¹": 929,
      "ä¸Ķ": 930,
      "åĪ°äºĨ": 931,
      "ç¿": 932,
      "å®Į": 933,
      "ä¸»é¢ĺ": 934,
      "èĮ": 935,
      "è¯»": 936,
      "åĲ«": 937,
      "åħ±": 938,
      "ä¸ĸçķĮ": 939,
      "æĪĺ": 940,
      "è¶Ĭ": 941,
      "è®¸": 942,
      "è¯Ħ": 943,
      "å¼ķ": 944,
      "åĩıå°ĳ": 945,
      "ä¸ŃæıĲåıĸ": 946,
      "Ķç©¶": 947,
      "å§ĭ": 948,
      "ç»Ń": 949,
      "åĮ»çĸĹ": 950,
      "åħ¶ä»ĸ": 951,
      "èıľ": 952,
      "ä¸ŃåĽ½": 953,
      "æµĭ": 954,
      "åı²": 955,
      "åħĭ": 956,
      "åĲĥ": 957,
      "åŁİå¸Ĥ": 958,
      "è½»": 959,
      "æİ¥": 960,
      "æĳĺè¦ģ": 961,
      "ç»Ļå®ļçļĦ": 962,
      "è§ī": 963,
      "åŃĺ": 964,
      "åĢĻ": 965,
      "ä¿ĿæĬ¤": 966,
      "ä¸¤ä¸ª": 967,
      "å¤ĩ": 968,
      "åĬŁ": 969,
      "åĪĨç±»": 970,
      "èµĦ": 971,
      "çĭĹ": 972,
      "åĽŀçŃĶ": 973,
      "å°½": 974,
      "å®¢": 975,
      "åĨħå®¹": 976,
      "æĬ¥": 977,
      "æŀĲ": 978,
      "åĥ": 979,
      "å¤ĦçĲĨ": 980,
      "Â·": 981,
      "å¤į": 982,
      "åı¤": 983,
      "è¥": 984,
      "èĩ´": 985,
      "ç´ł": 986,
      "ç«ĭ": 987,
      "æĢģ": 988,
      "çİĩ": 989,
      "åħĥ": 990,
      "è¶£": 991,
      "æĺĵ": 992,
      "è¶³": 993,
      "ï¼ī": 994,
      "æķĻ": 995,
      "ä¹°": 996,
      "èįĲ": 997,
      "äºĨä¸Ģ": 998,
      "èĳ": 999,
      "åĲ¦": 1000,
      "åĪĨæŀĲ": 1001,
      "æľĭ": 1002,
      "éªĮ": 1003,
      "è¥¿": 1004,
      "åħĪ": 1005,
      "æĪĸèĢħ": 1006,
      "æĲ": 1007,
      "é¥®": 1008,
      "æİ¢": 1009,
      "20": 1010,
      "è¯ī": 1011,
      "æľĭåıĭ": 1012,
      "æĸ¯": 1013,
      "çİ°åľ¨": 1014,
      "æĶ¯": 1015,
      "æ»¡": 1016,
      "ç¬¬": 1017,
      "åı¥è¯Ŀ": 1018,
      "ä¸ªäºº": 1019,
      "è±¡": 1020,
      "è·¯": 1021,
      "åĳ¨": 1022,
      "æİ¨èįĲ": 1023,
      "çº¿": 1024,
      "å¤´": 1025,
      "ç³ĸ": 1026,
      "ç»Ĩ": 1027,
      "ä¹ĭä¸Ģ": 1028,
      "ç§¯": 1029,
      "éĩĩ": 1030,
      "åħ¨çĲĥ": 1031,
      "çĻ½": 1032,
      "èģĶ": 1033,
      "æŁ¥": 1034,
      "åĶ": 1035,
      "çħ": 1036,
      "åĥı": 1037,
      "åĽ¾": 1038,
      "ç¥ŀ": 1039,
      "æľĽ": 1040,
      "æķ´": 1041,
      "åįķè¯į": 1042,
      "æĸĩåĮĸ": 1043,
      "ä½Ĩæĺ¯": 1044,
      "æİĴ": 1045,
      "æŃĮ": 1046,
      "æĸ½": 1047,
      "çļĦæĥ": 1048,
      "å²": 1049,
      "ä»½": 1050,
      "åıĤ": 1051,
      "è¯¯": 1052,
      "ä¾¿": 1053,
      "è®¸å¤ļ": 1054,
      "åĽŃ": 1055,
      "å·²ç»ı": 1056,
      "åĨį": 1057,
      "ç§ĳæĬĢ": 1058,
      "å¥³": 1059,
      "æĽ´å¤ļ": 1060,
      "åĨµ": 1061,
      "çīĩ": 1062,
      "æ¬¾": 1063,
      "åĳĬè¯ī": 1064,
      "ç»Ļåĩº": 1065,
      "¹æŀľ": 1066,
      "éĢŁ": 1067,
      "ä»Ĭå¤©": 1068,
      "èĭ¹æŀľ": 1069,
      "åĪĻ": 1070,
      "ï¼Ī": 1071,
      "çłĶç©¶": 1072,
      "ä»ĭ": 1073,
      "åĪĴ": 1074,
      "åĮĹ": 1075,
      "ħäºĭ": 1076,
      "ä¿ĿæĮģ": 1077,
      "è¿ĲåĬ¨": 1078,
      "éĤ£ä¹Ī": 1079,
      "è§Ħ": 1080,
      "çĶ·": 1081,
      "éĻ©": 1082,
      "çĥŃ": 1083,
      "å¾Īå¤ļ": 1084,
      "çľŁ": 1085,
      "ç´¢": 1086,
      "æĶ¿": 1087,
      "èİ·": 1088,
      "èĻĳ": 1089,
      "äºĮ": 1090,
      "éĹ»": 1091,
      "ç³»ç»Ł": 1092,
      "æŃ¤å¤ĸ": 1093,
      "åĬ¨çī©": 1094,
      "æĿ¡": 1095,
      "æĺ¯ä¸Ģç§į": 1096,
      "å¡": 1097,
      "æ´»åĬ¨": 1098,
      "éĹ¨": 1099,
      "æīĵ": 1100,
      "çĽ¸åħ³": 1101,
      "åıį": 1102,
      "çļĦäºº": 1103,
      "äº§åĵģ": 1104,
      "åħ¶ä¸Ń": 1105,
      "10": 1106,
      "çı": 1107,
      "æĬĬ": 1108,
      "åŃ£": 1109,
      "æ¼Ķ": 1110,
      "å°Ŀ": 1111,
      "ç§°": 1112,
      "éļ¾": 1113,
      "åºı": 1114,
      "æ¢": 1115,
      "è§ģ": 1116,
      "çŃĶæ¡Ī": 1117,
      "åĢ¼": 1118,
      "ç²¾": 1119,
      "èĩªå·±çļĦ": 1120,
      "æĿ¾": 1121,
      "åįģ": 1122,
      "è§£åĨ³": 1123,
      "æĶ¶": 1124,
      "å¸ĥ": 1125,
      "åı·": 1126,
      "åİĨåı²": 1127,
      "è°¢": 1128,
      "çĮ«": 1129,
      "è®°": 1130,
      "éħį": 1131,
      "åĳ½": 1132,
      "çĽ´": 1133,
      "ä¿®": 1134,
      "è´Ń": 1135,
      "éļı": 1136,
      "åıĺåĮĸ": 1137,
      "æľįåĬ¡": 1138,
      "å®īåħ¨": 1139,
      "ï¼ļâĢľ": 1140,
      "æ¨¡åŀĭ": 1141,
      "åĭ": 1142,
      "è¾ĥ": 1143,
      "èĩ³": 1144,
      "æŀĦ": 1145,
      "åĲ¬": 1146,
      "èĭ±": 1147,
      "ç¢": 1148,
      "ä½İ": 1149,
      "éĶĻè¯¯": 1150,
      "åħ·ä½ĵ": 1151,
      "ä½¿åħ¶": 1152,
      "å¦": 1153,
      "æĪĲä¸º": 1154,
      "æħ": 1155,
      "å¸¦æĿ¥": 1156,
      "æľºåĻ¨åŃ¦ä¹ł": 1157,
      "éĩĬ": 1158,
      "éŁ³ä¹Ĳ": 1159,
      "è®¡ç®Ĺæľº": 1160,
      "ç»ĥ": 1161,
      "å¤ı": 1162,
      "è®¾è®¡": 1163,
      "æŁĵ": 1164,
      "è®²": 1165,
      "æłĩé¢ĺ": 1166,
      "æ¶Ī": 1167,
      "åĲ¸": 1168,
      "èĤ²": 1169,
      "èº«ä½ĵ": 1170,
      "ç¤¾ä¼ļ": 1171,
      "åıĳçİ°": 1172,
      "çĭ¬": 1173,
      "äº«": 1174,
      "åħ³éĶ®è¯į": 1175,
      "åħħ": 1176,
      "æ²»": 1177,
      "åħ´": 1178,
      "æĹłæ³ķ": 1179,
      "æĻļ": 1180,
      "æĺ¯ä»Ģä¹Ī": 1181,
      "ä»»åĬ¡": 1182,
      "æĸ°çļĦ": 1183,
      "ç§ĳåŃ¦": 1184,
      "ä¸½": 1185,
      "é¦Ļ": 1186,
      "å¤±": 1187,
      "çŃĸ": 1188,
      "çļĦæĦ": 1189,
      "æĪĳæĥ³": 1190,
      "èĢģ": 1191,
      "ç»į": 1192,
      "æ¤": 1193,
      "ä»¥ä¸ĭåı¥åŃĲ": 1194,
      "çļĦæĥħ": 1195,
      "ä¸ĭéĿ¢": 1196,
      "è§Ĵ": 1197,
      "é©¬": 1198,
      "AI": 1199,
      "åħ·æľī": 1200,
      "æīį": 1201,
      "åĳĬè¯īæĪĳ": 1202,
      "çĬ¶": 1203,
      "åį³": 1204,
      "æ´ģ": 1205,
      "ãĢĤ\\": 1206,
      "æĿĲ": 1207,
      "ä»ĭç»į": 1208,
      "è®¤ä¸º": 1209,
      "ä¸Ģæ®µ": 1210,
      "èµĽ": 1211,
      "çĶŁæĪĲä¸Ģä¸ª": 1212,
      "è½¬": 1213,
      "æĸĩæ¡Ī": 1214,
      "å¨": 1215,
      "æīĢæľī": 1216,
      "ä½łçļĦ": 1217,
      "æľĢè¿ĳ": 1218,
      "æĢ»ç»ĵ": 1219,
      "äº¬": 1220,
      "è¯ĨåĪ«": 1221,
      "éĺŁ": 1222,
      "äºĶ": 1223,
      "åįĹ": 1224,
      "è¾ĳ": 1225,
      "çŃīçŃī": 1226,
      "æĪĳä»¬çļĦ": 1227,
      "èĽ": 1228,
      "è£ħ": 1229,
      "è®¨": 1230,
      "è¶ħ": 1231,
      "æĸ°éĹ»": 1232,
      "éĽĨ": 1233,
      "é²": 1234,
      "è¾ĵåħ¥": 1235,
      "èĥ½åĬĽ": 1236,
      "çļĦå½±åĵį": 1237,
      "ç»´": 1238,
      "å½ĵçĦ¶": 1239,
      "åħį": 1240,
      "æ¯Ķå¦Ĥ": 1241,
      "ä¹ĭéĹ´": 1242,
      "éĺ²": 1243,
      "èĲ¥": 1244,
      "åĬ¿": 1245,
      "çļĦä¸Ģ": 1246,
      "åįİ": 1247,
      "å¼ł": 1248,
      "éĢĤåĲĪ": 1249,
      "æīĢä»¥": 1250,
      "è¡¨è¾¾": 1251,
      "çļĦéĹ®é¢ĺ": 1252,
      "æ°ĳ": 1253,
      "æį¢": 1254,
      "åįĩ": 1255,
      "èħ": 1256,
      "å£«": 1257,
      "æĹħæ¸¸": 1258,
      "äºĴ": 1259,
      "å°Ŀè¯ķ": 1260,
      "éĽ¨": 1261,
      "å¿ħ": 1262,
      "æĹ©": 1263,
      "æ¦Ĥ": 1264,
      "ä¸ľ": 1265,
      "è¡£": 1266,
      "èĤī": 1267,
      "é»ĳ": 1268,
      "çļĦæĬ": 1269,
      "å°Ķ": 1270,
      "åİħ": 1271,
      "åľ°çĲĥ": 1272,
      "åĽĽ": 1273,
      "ç¾İåĽ½": 1274,
      "çļĦä¿¡æģ¯": 1275,
      "è¦ģæ±Ĥ": 1276,
      "æĥħæĦŁ": 1277,
      "å°ıè¯´": 1278,
      "å¼Ģå§ĭ": 1279,
      "ç§ĭ": 1280,
      "çĲĨè§£": 1281,
      "å®ŀçİ°": 1282,
      "åĳ¢": 1283,
      "ï¼Ł<|": 1284,
      "çļĦåı¥åŃĲ": 1285,
      "èĳĹ": 1286,
      "æĪĳçļĦ": 1287,
      "åİĭ": 1288,
      "æŀĹ": 1289,
      "ç§¯æŀģ": 1290,
      "åĦ": 1291,
      "äºĨè§£": 1292,
      "éĻ¤": 1293,
      "æĭī": 1294,
      "å¯¼èĩ´": 1295,
      "è¾¹": 1296,
      "æĺ¯åĲ¦": 1297,
      "æļĸ": 1298,
      "çļĦåºĶçĶ¨": 1299,
      "çª": 1300,
      "å¯¹äºİ": 1301,
      "çŁ¥éģĵ": 1302,
      "æŃ£åľ¨": 1303,
      "ä¸ĵ": 1304,
      "æ³Ľ": 1305,
      "è¿ľ": 1306,
      "èīº": 1307,
      "æĺ¾": 1308,
      "å£°": 1309,
      "ä½łåı¯ä»¥": 1310,
      "åĸĦ": 1311,
      "ªæĸ½": 1312,
      "å¤ªéĺ³": 1313,
      "è®¡åĪĴ": 1314,
      "è´¹": 1315,
      "çĦ¶åĲİ": 1316,
      "èµ°": 1317,
      "æĪı": 1318,
      "ä¸įæĸŃ": 1319,
      "éĻį": 1320,
      "ä¸Ģèµ·": 1321,
      "ç¦»": 1322,
      "åĲĦç§į": 1323,
      "èĩªåĬ¨": 1324,
      "æĪ¿": 1325,
      "æĽ´å¥½": 1326,
      "æĴ": 1327,
      "å¯»": 1328,
      "åı°": 1329,
      "åħ»": 1330,
      "å·§": 1331,
      "æ®µèĲ½": 1332,
      "æ½": 1333,
      "¡æŁĵ": 1334,
      "èŀ": 1335,
      "å¸Į": 1336,
      "çħ§": 1337,
      "è§£éĩĬ": 1338,
      "ç©¿": 1339,
      "ç½®": 1340,
      "åı¦": 1341,
      "å¾·": 1342,
      "å¯Į": 1343,
      "ä¼¼": 1344,
      "éĶĢ": 1345,
      "åĽ´": 1346,
      "ç»Ī": 1347,
      "æĤ¨åı¯ä»¥": 1348,
      "çĶ¨æĪ·": 1349,
      "æĦŁåĪ°": 1350,
      "çİ©": 1351,
      "ç¿»": 1352,
      "åĴĸ": 1353,
      "åŃĺåľ¨": 1354,
      "éĻħ": 1355,
      "ä½ľä¸º": 1356,
      "å·´": 1357,
      "é¥®é£Ł": 1358,
      "æĺ¥": 1359,
      "å¹¿æ³Ľ": 1360,
      "çģ«": 1361,
      "çļĦæ°": 1362,
      "å¸Ĥåľº": 1363,
      "èĢĥèĻĳ": 1364,
      "çĶ»": 1365,
      "ä»ĸçļĦ": 1366,
      "éĢļå¸¸": 1367,
      "èĽĭ": 1368,
      "çļĦåıĳå±ķ": 1369,
      "æİ§": 1370,
      "åĦ¿": 1371,
      "çļĦæł": 1372,
      "åł": 1373,
      "ä¸ĩ": 1374,
      "åķ¡": 1375,
      "æ³¨æĦı": 1376,
      "åŃ©": 1377,
      "èįī": 1378,
      "çļĦä¸»è¦ģ": 1379,
      "åĴĸåķ¡": 1380,
      "å¯Ĩ": 1381,
      "ä¸Ģç¯ĩ": 1382,
      "å¤§çļĦ": 1383,
      "äºļ": 1384,
      "çĨ": 1385,
      "ä¸Ģç§į": 1386,
      "å¦Ĥæŀľä½ł": 1387,
      "æľīåħ³": 1388,
      "å¹¶ä¸Ķ": 1389,
      "çļĦåľ°": 1390,
      "ĳæĪĺ": 1391,
      "æµİ": 1392,
      "çİĭ": 1393,
      "æ±¡æŁĵ": 1394,
      "èŀį": 1395,
      "é»Ħ": 1396,
      "å¾ĭ": 1397,
      "é£ŀ": 1398,
      "æĹħè¡Į": 1399,
      "çīĽ": 1400,
      "äº¤éĢļ": 1401,
      "ä¹Łåı¯ä»¥": 1402,
      "åºĹ": 1403,
      "æ°ĶåĢĻ": 1404,
      "çļĦæĢ": 1405,
      "åĪ©çĶ¨": 1406,
      "è¿ĺæľī": 1407,
      "é¤Ĳåİħ": 1408,
      "è¯ģ": 1409,
      "å®¤": 1410,
      "ç±³": 1411,
      "è¿Ļç§į": 1412,
      "ç¼ĸè¾ĳ": 1413,
      "è§ĤçĤ¹": 1414,
      "å¸Ī": 1415,
      "é£Łçī©": 1416,
      "æĢİ": 1417,
      "å®ĮæĪĲ": 1418,
      "èĥ½æºĲ": 1419,
      "çļĦæķ°": 1420,
      "å¢ŀåĬł": 1421,
      "å¿µ": 1422,
      "çĳ": 1423,
      "ç®Ģåįķ": 1424,
      "éħĴ": 1425,
      "åħ³ç³»": 1426,
      "å¤ľ": 1427,
      "è´¨éĩı": 1428,
      "æŁĲ": 1429,
      "ç®¡çĲĨ": 1430,
      "æĸĩç«łä¸ŃæıĲåıĸ": 1431,
      "åĩłä¸ª": 1432,
      "ä»¤": 1433,
      "æľīè¶£": 1434,
      "ç«Ļ": 1435,
      "æī¾åĪ°": 1436,
      "è´Ł": 1437,
      "å®Ŀ": 1438,
      "æ¹": 1439,
      "ç»ıæµİ": 1440,
      "äºĳ": 1441,
      "åıĪ": 1442,
      "éĻĲ": 1443,
      "æ¿": 1444,
      "ç®Ĺæ³ķ": 1445,
      "ç»¿": 1446,
      "å¸®æĪĳ": 1447,
      "æĸĩç«łä¸Ń": 1448,
      "åĮħåĲ«": 1449,
      "åĩĨç¡®": 1450,
      "æĭ¥": 1451,
      "ç³ĸæŀľ": 1452,
      "æĵ": 1453,
      "ä¸įåĲĮçļĦ": 1454,
      "å®³": 1455,
      "ä»»ä½ķ": 1456,
      "ãĢĤ\"": 1457,
      "ä¸īä¸ª": 1458,
      "è¯Ĭ": 1459,
      "è¿Ļæ®µ": 1460,
      "èĵ": 1461,
      "ç¬¦": 1462,
      "æİªæĸ½": 1463,
      "çļĦæĺ¯": 1464,
      "ä¸¾": 1465,
      "èģĮ": 1466,
      "åºľ": 1467,
      "æĪĲåĬŁ": 1468,
      "èĪĴ": 1469,
      "æ©": 1470,
      "å±ħ": 1471,
      "è¯ĳ": 1472,
      "å¾®": 1473,
      "ç®Ģæ´ģ": 1474,
      "è¯Ńæ³ķ": 1475,
      "æłĳ": 1476,
      "æķħäºĭ": 1477,
      "åī§": 1478,
      "æĤ¨çļĦ": 1479,
      "éĥ½æĺ¯": 1480,
      "èĩªçĦ¶è¯Ńè¨Ģ": 1481,
      "æ¯ıä¸ª": 1482,
      "æķ£": 1483,
      "åķĨåĵģ": 1484,
      "éĺħ": 1485,
      "åĪ¤": 1486,
      "è®Ń": 1487,
      "å¹²": 1488,
      "è¯·éĹ®": 1489,
      "å¸ĮæľĽ": 1490,
      "éģ¿": 1491,
      "é¾": 1492,
      "å¾Ģ": 1493,
      "çīĮ": 1494,
      "çļĦéĩįè¦ģ": 1495,
      "é±": 1496,
      "æĪĳä»¬åı¯ä»¥": 1497,
      "çİ°ä»£": 1498,
      "ä¼ģ": 1499,
      "èİ·å¾Ĺ": 1500,
      "è¡Įä¸º": 1501,
      "åĵªäºĽ": 1502,
      "è¿ĩç¨ĭ": 1503,
      "é±¼": 1504,
      "ä»¥ä¸ĭæĸĩæľ¬": 1505,
      "ç»ĩ": 1506,
      "é¦Ĩ": 1507,
      "ç»ľ": 1508,
      "ç±»åŀĭ": 1509,
      "çĶ±äºİ": 1510,
      "çĻ¾": 1511,
      "ä¸įèĥ½": 1512,
      "æķĻèĤ²": 1513,
      "ä»ħ": 1514,
      "å¾ĹåĪ°": 1515,
      "æĥħåĨµ": 1516,
      "éº": 1517,
      "ä¼Ĺ": 1518,
      "æĿİ": 1519,
      "æľīæķĪ": 1520,
      "æĽ´å¥½åľ°": 1521,
      "æĮģç»Ń": 1522,
      "¾çĹħ": 1523,
      "è¿ŀ": 1524,
      "æĿ¯": 1525,
      "åĮĹäº¬": 1526,
      "éĩįåĨĻ": 1527,
      "æ²Ļ": 1528,
      "åħ¸": 1529,
      "äººçļĦ": 1530,
      "æľĢåĲİ": 1531,
      "äº§çĶŁ": 1532,
      "ç»ĵæŀľ": 1533,
      "å±ŀ": 1534,
      "é¢Ħæµĭ": 1535,
      "èī²çļĦ": 1536,
      "æĽ²": 1537,
      "åŃ¦çĶŁ": 1538,
      "ç¿»è¯ĳ": 1539,
      "åĪ¶ä½ľ": 1540,
      "æĽ¿": 1541,
      "çĶ¨äºİ": 1542,
      "å¦ĤæŀľæĤ¨": 1543,
      "äºĨä¸Ģä¸ª": 1544,
      "éĩĩåıĸ": 1545,
      "çļĦçĶµå½±": 1546,
      "é¼": 1547,
      "é¸Ł": 1548,
      "åı¯ä»¥å¸®åĬ©": 1549,
      "éĿĻ": 1550,
      "éĺħè¯»": 1551,
      "äººå·¥æĻºèĥ½æĬĢæľ¯": 1552,
      "åħ¬åĽŃ": 1553,
      "çļĦæĸĩæľ¬": 1554,
      "å¥ĩ": 1555,
      "åĽ¢": 1556,
      "åª": 1557,
      "èģĬ": 1558,
      "å®ŀä½ĵ": 1559,
      "åı¶": 1560,
      "å¥¶": 1561,
      "00": 1562,
      "å¾ģ": 1563,
      "è¿Ļæł·": 1564,
      "çĽ®æłĩ": 1565,
      "è½¯": 1566,
      "è¿ĺæĺ¯": 1567,
      "èĦĳ": 1568,
      "æ¥": 1569,
      "çļĦæĻ": 1570,
      "é¢ľ": 1571,
      "é¸¡": 1572,
      "åĿĩ": 1573,
      "èµ·æĿ¥": 1574,
      "èĻ½": 1575,
      "æĺ¨": 1576,
      "è¯ĬæĸŃ": 1577,
      "åĲįç§°": 1578,
      "åºŃ": 1579,
      "åı¯èĥ½ä¼ļ": 1580,
      "æ¿Ģ": 1581,
      "ç½ĳç»ľ": 1582,
      "æµª": 1583,
      "åıĳçĶŁ": 1584,
      "åģĩ": 1585,
      "åĩºçİ°": 1586,
      "éľĢæ±Ĥ": 1587,
      "éĻ¢": 1588,
      "è¡¨ç¤º": 1589,
      "çº§": 1590,
      "æł¹æį®ç»Ļå®ļçļĦ": 1591,
      "çļĦæĦı": 1592,
      "è·ĳ": 1593,
      "æ¸¸æĪı": 1594,
      "ä½ĵéªĮ": 1595,
      "åĮ»çĶŁ": 1596,
      "äºī": 1597,
      "ç¬Ķ": 1598,
      "æĶ¿åºľ": 1599,
      "çļĦç¾": 1600,
      "çŁ³": 1601,
      "å³": 1602,
      "ç¡®ä¿Ŀ": 1603,
      "æĪĳåı¯ä»¥": 1604,
      "ä½ľçĶ¨": 1605,
      "éĥ¨åĪĨ": 1606,
      "èµĦæºĲ": 1607,
      "çĸ¾çĹħ": 1608,
      "æŃ£ç¡®": 1609,
      "ä¹Łæĺ¯": 1610,
      "çĵ": 1611,
      "éŃ": 1612,
      "èĶ": 1613,
      "èī¯": 1614,
      "ç¨ĭåºı": 1615,
      "éĩįè¦ģçļĦ": 1616,
      "çļĦæİ": 1617,
      "éģ¿åħį": 1618,
      "å¤ļå°ĳ": 1619,
      "çĽĬ": 1620,
      "éĨ": 1621,
      "æ¤į": 1622,
      "æİ¢ç´¢": 1623,
      "è´Ńä¹°": 1624,
      "ĥåľ": 1625,
      "é£İæł¼": 1626,
      "æ²¹": 1627,
      "èĩªçĦ¶è¯Ńè¨Ģå¤ĦçĲĨ": 1628,
      "ä¸įæĺ¯": 1629,
      "ĊĊ": 1630,
      "æĮĳæĪĺ": 1631,
      "èį¯": 1632,
      "åŀĥåľ": 1633,
      "åŀĥåľ¾": 1634,
      "èĵĿ": 1635,
      "éĿĴ": 1636,
      "çļĦæĬĢ": 1637,
      "æľ¨": 1638,
      "æ°ĶåĢĻåıĺåĮĸ": 1639,
      "åĿĹ": 1640,
      "éģĩ": 1641,
      "èŃ": 1642,
      "å½©": 1643,
      "åĪ»": 1644,
      "é²ľ": 1645,
      "ä¸Ģä»½": 1646,
      "ä¼ģä¸ļ": 1647,
      "å°ıçº¢": 1648,
      "æķĪçİĩ": 1649,
      "åĬª": 1650,
      "ä¸¥": 1651,
      "äºĭä»¶": 1652,
      "åĨ°": 1653,
      "æ´ĭ": 1654,
      "ç¡®å®ļ": 1655,
      "ç¦ı": 1656,
      "åį¡": 1657,
      "åĳ¼": 1658,
      "è¿½": 1659,
      "è¿Ļåı¥è¯Ŀ": 1660,
      "è¯¢": 1661,
      "åĪĩ": 1662,
      "âĢĿï¼Į": 1663,
      "æĭ¥æľī": 1664,
      "å±Ĥ": 1665,
      "å¾ħ": 1666,
      "æ¯Ķè¾ĥ": 1667,
      "èĻ½çĦ¶": 1668,
      "çļĦæĸĩç«ł": 1669,
      "æĮī": 1670,
      "åĬłåħ¥": 1671,
      "åĬŁèĥ½": 1672,
      "å°¼": 1673,
      "è¡¨çİ°": 1674,
      "ä¸ºæĤ¨": 1675,
      "æ£Ģ": 1676,
      "æĢİä¹Ī": 1677,
      "è®Ńç»ĥ": 1678,
      "åĬªåĬĽ": 1679,
      "åİĭåĬĽ": 1680,
      "åĬŀ": 1681,
      "æĸ¹æ¡Ī": 1682,
      "æĬķ": 1683,
      "äº®": 1684,
      "åħ³æ³¨": 1685,
      "æ¯ĶèµĽ": 1686,
      "çļĦç¾İ": 1687,
      "æ²»çĸĹ": 1688,
      "èĮĥ": 1689,
      "æ±½": 1690,
      "ä¼ĳ": 1691,
      "ç¤¾äº¤": 1692,
      "çļĦæĸ¹æ³ķ": 1693,
      "å·ŀ": 1694,
      "ä»İæĸĩç«łä¸ŃæıĲåıĸ": 1695,
      "å½Ĵ": 1696,
      "è®²è¿°": 1697,
      "æĻ®": 1698,
      "æĿĤ": 1699,
      "ç»Ħç»ĩ": 1700,
      "ç¼ĵ": 1701,
      "åĨĽ": 1702,
      "ä¸´": 1703,
      "çļĦæī": 1704,
      "è¯Ħè®º": 1705,
      "è¿Ļæĺ¯": 1706,
      "çļĦå¤©æ°Ķ": 1707,
      "æ»©": 1708,
      "æīįèĥ½": 1709,
      "éĢģ": 1710,
      "æ´²": 1711,
      "èĪĴéĢĤ": 1712,
      "åĶ®": 1713,
      "çĸ«": 1714,
      "æĶ¯æĮģ": 1715,
      "é¢ĺçĽ®": 1716,
      "é¦ĸåħĪ": 1717,
      "çłģ": 1718,
      "ç½Ĺ": 1719,
      "æĶ¹åıĺ": 1720,
      "æİ§åĪ¶": 1721,
      "è¿İ": 1722,
      "çĶŁæĢģ": 1723,
      "æĢ§åĴĮ": 1724,
      "éĩįæĸ°": 1725,
      "è¿ĺåı¯ä»¥": 1726,
      "äº«åıĹ": 1727,
      "æ°´æŀľ": 1728,
      "çĥ¤": 1729,
      "å®¶åºŃ": 1730,
      "ä¸ĬçļĦ": 1731,
      "èīºæľ¯": 1732,
      "çĶµåŃĲ": 1733,
      "ç®ĢçŁŃ": 1734,
      "äº²": 1735,
      "ä½łèĥ½": 1736,
      "çīĪ": 1737,
      "åĿļ": 1738,
      "çĤ¼": 1739,
      "ä¸ºäºĨ": 1740,
      "æĲŃ": 1741,
      "å½ĵåľ°": 1742,
      "åĪĽéĢł": 1743,
      "åĪ¤æĸŃ": 1744,
      "éĥ¨çĶµå½±": 1745,
      "é£İéĻ©": 1746,
      "éĩİ": 1747,
      "å°ļ": 1748,
      "éŀ": 1749,
      "æĭŁ": 1750,
      "ä»İèĢĮ": 1751,
      "äººå·¥æĻºèĥ½åľ¨": 1752,
      "èľ": 1753,
      "æĸĩåŃĹ": 1754,
      "æ³¢": 1755,
      "æĿ¥è¶Ĭ": 1756,
      "é¢Ĺ": 1757,
      "çļ®": 1758,
      "æ¯į": 1759,
      "å®ĥçļĦ": 1760,
      "ä¼łç»Ł": 1761,
      "ä»į": 1762,
      "ä»·æł¼": 1763,
      "ç¼º": 1764,
      "åĤ": 1765,
      "æł¡": 1766,
      "çĶŁåĳ½": 1767,
      "è¶ĬæĿ¥è¶Ĭ": 1768,
      "åĲ§": 1769,
      "çĶŁçī©": 1770,
      "æ¼«": 1771,
      "æľĢç»Ī": 1772,
      "çķĻ": 1773,
      "èĴ": 1774,
      "è¡ĮåĬ¨": 1775,
      "å¨ģ": 1776,
      "ä¸Ńå¿ĥ": 1777,
      "å°½ç®¡": 1778,
      "ä»İè¿Ļç¯ĩæĸĩç«ł": 1779,
      "çºł": 1780,
      "èĳĹåĲį": 1781,
      "æĩ": 1782,
      "åıĤåĬł": 1783,
      "éĺ¿": 1784,
      "çĽĳ": 1785,
      "è¯¦": 1786,
      "çļĦæĳ": 1787,
      "èĥĮ": 1788,
      "çĶŁäº§": 1789,
      "èĥľ": 1790,
      "è®¨è®º": 1791,
      "å°±æĺ¯": 1792,
      "æ¯ıå¤©": 1793,
      "çļĦæµ": 1794,
      "åİŁåĽł": 1795,
      "è¡Įä¸ļ": 1796,
      "çļĦæķħäºĭ": 1797,
      "æĶ¾æĿ¾": 1798,
      "åıĹåĪ°": 1799,
      "æľīå¾Īå¤ļ": 1800,
      "ç¾İä¸½": 1801,
      "éĩĳèŀį": 1802,
      "æĹ¶åĢĻ": 1803,
      "åªĴ": 1804,
      "åĽ°": 1805,
      "é£Łåĵģ": 1806,
      "é¢ľèī²": 1807,
      "âĢĿãĢĤ": 1808,
      "åŁºäºİ": 1809,
      "æĽ´å¤ļçļĦ": 1810,
      "æ²³": 1811,
      "ä½ı": 1812,
      "åī©": 1813,
      "çķ¥": 1814,
      "æ¦Ĥæĭ¬": 1815,
      "æ±½è½¦": 1816,
      "æ·±åº¦": 1817,
      "èĶ¬": 1818,
      "æĶ¹åĸĦ": 1819,
      "è¶ĭ": 1820,
      "è¡¡": 1821,
      "æ¢¦": 1822,
      "åı¦å¤ĸ": 1823,
      "åľºæĻ¯": 1824,
      "å¤§éĩı": 1825,
      "éŀĭ": 1826,
      "ä¸°": 1827,
      "è¾ĵåĩº": 1828,
      "éĤ®": 1829,
      "çģµ": 1830,
      "å¼Ĥ": 1831,
      "ä¼¤": 1832,
      "ä½³": 1833,
      "ä¹ĭéĹ´çļĦ": 1834,
      "åĪĽæĦı": 1835,
      "é¡»": 1836,
      "çªģ": 1837,
      "çľł": 1838,
      "æĬ±": 1839,
      "åıĺå¾Ĺ": 1840,
      "éĺ³åħī": 1841,
      "åĩĨå¤ĩ": 1842,
      "ä¿ĥ": 1843,
      "éĴŁ": 1844,
      "çł´": 1845,
      "åº§": 1846,
      "çļĦå»ºè®®": 1847,
      "éļıçĿĢ": 1848,
      "çĩ": 1849,
      "åħħæ»¡": 1850,
      "çĿ¡": 1851,
      "æĺ¨å¤©": 1852,
      "çļĦæŃ": 1853,
      "é©¾": 1854,
      "æĪĳä»¬éľĢè¦ģ": 1855,
      "ä¸Ģåıª": 1856,
      "æ¯ıä¸ªäºº": 1857,
      "æ·»": 1858,
      "åĨ¬": 1859,
      "å°Ĩåħ¶": 1860,
      "ä¸ºä»Ģä¹Ī": 1861,
      "åľŁ": 1862,
      "è¿Ļæĺ¯ä¸Ģ": 1863,
      "è¯¦ç»Ĩ": 1864,
      "å¯»æī¾": 1865,
      "åį°": 1866,
      "çĽ®åīį": 1867,
      "åĵģçīĮ": 1868,
      "èĶ¬èıľ": 1869,
      "æĤ£": 1870,
      "åį«": 1871,
      "å·¥åħ·": 1872,
      "é©¶": 1873,
      "è¯ĹæŃĮ": 1874,
      "æĺİå¤©": 1875,
      "åĨ³å®ļ": 1876,
      "è¶ĭåĬ¿": 1877,
      "æľīä»Ģä¹Ī": 1878,
      "çļĦæ¸": 1879,
      "å½ķ": 1880,
      "è£¤": 1881,
      "åįĥ": 1882,
      "ä¹īè¯į": 1883,
      "åĩºäºĨ": 1884,
      "æīĭæľº": 1885,
      "ç»ĵæŀĦ": 1886,
      "ä¼¦": 1887,
      "ç´§": 1888,
      "æĬ½": 1889,
      "ä½¿åħ¶æĽ´åĬł": 1890,
      "éĶ»": 1891,
      "éĩĩçĶ¨": 1892,
      "åįĪ": 1893,
      "ä¸Ģé¦ĸ": 1894,
      "åħ´è¶£": 1895,
      "å»ºç«ĭ": 1896,
      "æĿĥ": 1897,
      "å¿ĥçĲĨ": 1898,
      "ä¸ĬæľĢ": 1899,
      "åĽłç´ł": 1900,
      "ä½ľèĢħ": 1901,
      "éĴ±": 1902,
      "æĿĲæĸĻ": 1903,
      "éĶ»çĤ¼": 1904,
      "çļĦçŁ": 1905,
      "å·¨": 1906,
      "ä¸įä»ħ": 1907,
      "åĵĪ": 1908,
      "ä¸Ģæ¬¡": 1909,
      "ä»·åĢ¼": 1910,
      "åı¯æĮģç»Ń": 1911,
      "åĩ»": 1912,
      "åĪĽæĸ°": 1913,
      "ä»ĸä»¬çļĦ": 1914,
      "å¹»": 1915,
      "æĥ³è¦ģ": 1916,
      "éļĲ": 1917,
      "é¢ĳ": 1918,
      "æĪĳåĸľæ¬¢": 1919,
      "å®¢æĪ·": 1920,
      "äºĭæĥħ": 1921,
      "è¯·ä½ł": 1922,
      "ç¥¨": 1923,
      "å¡ĳ": 1924,
      "æĳĦ": 1925,
      "ç¾¤": 1926,
      "æĹ¨": 1927,
      "åªĴä½ĵ": 1928,
      "çľ¼": 1929,
      "è´ŁéĿ¢": 1930,
      "ä¸ĵä¸ļ": 1931,
      "èķ": 1932,
      "æķ°åŃĹ": 1933,
      "ãĢĤâĢĿ<|": 1934,
      "åľ¨è¿Ļä¸ª": 1935,
      "å½ĵçĦ¶åı¯ä»¥": 1936,
      "ç§ĺ": 1937,
      "å¼Ģåıĳ": 1938,
      "ä½ľåĵģ": 1939,
      "ä¸ªèĭ¹æŀľ": 1940,
      "19": 1941,
      "è´£": 1942,
      "å¾Īå¥½": 1943,
      "åĮ»åŃ¦": 1944,
      "èĮ¶": 1945,
      "æĿ¥è¯´": 1946,
      "çºª": 1947,
      "çļĦæĥħæĦŁ": 1948,
      "èª": 1949,
      "çī¹å¾ģ": 1950,
      "åºķ": 1951,
      "åİ»äºĨ": 1952,
      "éĢĲ": 1953,
      "åıĮ": 1954,
      "æŃ¢": 1955,
      "æ¯Ľ": 1956,
      "æĥĬ": 1957,
      "å³°": 1958,
      "éĢłæĪĲ": 1959,
      "çŁ¥è¯Ĩ": 1960,
      "è®¾å¤ĩ": 1961,
      "ä¸Ģåı¥è¯Ŀ": 1962,
      "æĪĳä¼ļ": 1963,
      "ä»Ģä¹Īæĺ¯": 1964,
      "åĨ·": 1965,
      "å¤ıå¤©": 1966,
      "é¥Ń": 1967,
      "æĸĩæľ¬ä¸Ń": 1968,
      "èĹ": 1969,
      "çļĦæłĩ": 1970,
      "é¹": 1971,
      "ä¸įéĶĻ": 1972,
      "çļĦæĶ": 1973,
      "æıĲåĪ°": 1974,
      "æ¸Ĳ": 1975,
      "æľ¬æĸĩ": 1976,
      "è¿Ļä¸ªéĹ®é¢ĺ": 1977,
      "ç¤¼": 1978,
      "éĵģ": 1979,
      "çĸĳ": 1980,
      "åĪĿ": 1981,
      "åĲ¸å¼ķ": 1982,
      "çĹĩ": 1983,
      "åįļ": 1984,
      "çľĭåĪ°": 1985,
      "åĸĿ": 1986,
      "ç¼ĸåĨĻ": 1987,
      "æ½®": 1988,
      "å¥Ĺ": 1989,
      "æĬ¥éģĵ": 1990,
      "è®©æĪĳ": 1991,
      "æħ¢": 1992,
      "ä¸Ģå®ļ": 1993,
      "ç¾İé£Ł": 1994,
      "è¿Ļéĥ¨çĶµå½±": 1995,
      "ç§ģ": 1996,
      "å©": 1997,
      "èĢĮä¸Ķ": 1998,
      "ä¸ĢæŃ¥": 1999,
      "åĲįåŃĹ": 2000,
      "çķħ": 2001,
      "çŃĳ": 2002,
      "æķ°åŃ¦": 2003,
      "åľ°åĮº": 2004,
      "éĢı": 2005,
      "åĿĲ": 2006,
      "ï¼ģ<|": 2007,
      "å¿«éĢŁ": 2008,
      "ä¿®æĶ¹": 2009,
      "åįı": 2010,
      "éĴĪ": 2011,
      "ç¼ĸç¨ĭ": 2012,
      "ç¬ĳ": 2013,
      "å®ĺ": 2014,
      "èŃ¦": 2015,
      "æ±ĩ": 2016,
      "å¥¥": 2017,
      "ç»ª": 2018,
      "æĶ¹åĨĻ": 2019,
      "åĨľ": 2020,
      "çī¹åĪ«": 2021,
      "å±Ģ": 2022,
      "é¡º": 2023,
      "æĲľ": 2024,
      "æĢ§çļĦ": 2025,
      "åŃ©åŃĲ": 2026,
      "å¿Ĺ": 2027,
      "æ¤įçī©": 2028,
      "èĩªçĶ±": 2029,
      "æľºåĻ¨äºº": 2030,
      "èĪŀ": 2031,
      "ä¾Ŀ": 2032,
      "éĻįä½İ": 2033,
      "ä¸įä¼ļ": 2034,
      "çļĦæ¯": 2035,
      "ä»İè¿Ļç¯ĩæĸĩç«łä¸ŃæıĲåıĸ": 2036,
      "çıŃ": 2037,
      "å¿ħé¡»": 2038,
      "åı¤è¯Ĺ": 2039,
      "äººåĲį": 2040,
      "Ġ\"": 2041,
      "å®£": 2042,
      "å¤įæĿĤ": 2043,
      "çŃīæĸ¹éĿ¢": 2044,
      "éĥ½æľī": 2045,
      "è¯ŃéŁ³": 2046,
      "éĤ®ä»¶": 2047,
      "åĪļ": 2048,
      "æ¸ħæĻ": 2049,
      "æľ«": 2050,
      "çĽĸ": 2051,
      "é¡¹çĽ®": 2052,
      "çĦ¦": 2053,
      "æľ¬ä¹¦": 2054,
      "åĽ¾åĥı": 2055,
      "ä¸°å¯Į": 2056,
      "çļĦæı": 2057,
      "æľºä¼ļ": 2058,
      "çļĦæķ°æį®": 2059,
      "éĹ²": 2060,
      "åĬłå¼º": 2061,
      "æ±Ł": 2062,
      "å²ģ": 2063,
      "å±ŀäºİ": 2064,
      "ä»¥ä¸ĭæĺ¯": 2065,
      "é¾Ļ": 2066,
      "å»ºçŃĳ": 2067,
      "æĹı": 2068,
      "è¡¨æĺİ": 2069,
      "ç»Ŀ": 2070,
      "æĪĲè¯Ń": 2071,
      "å·®": 2072,
      "æ¶ī": 2073,
      "åĢĭ": 2074,
      "èĸ": 2075,
      "ç»ıåħ¸": 2076,
      "èģĶç½ĳ": 2077,
      "çļĦçĶŁæ´»": 2078,
      "çļĦçł": 2079,
      "éĽª": 2080,
      "æŁĶ": 2081,
      "çī¹çĤ¹": 2082,
      "æĺ¯æĮĩ": 2083,
      "åį´": 2084,
      "æ¬§": 2085,
      "ä½įç½®": 2086,
      "æİ¢è®¨": 2087,
      "åħ±åĲĮ": 2088,
      "æľĹ": 2089,
      "å¹¸": 2090,
      "æĥ¯": 2091,
      "çº³": 2092,
      "çļĦåħ³éĶ®": 2093,
      "æĽ¿æį¢": 2094,
      "å®ĩ": 2095,
      "è§īå¾Ĺ": 2096,
      "è´¢": 2097,
      "åĪ¶å®ļ": 2098,
      "æ©Ļ": 2099,
      "æ¯Ĵ": 2100,
      "ä»£è¡¨": 2101,
      "èĪª": 2102,
      "æ·±åº¦åŃ¦ä¹ł": 2103,
      "å½¢å¼ı": 2104,
      "é©¾é©¶": 2105,
      "åĬ©äºİ": 2106,
      "çī¹å®ļ": 2107,
      "æ¬¢è¿İ": 2108,
      "çļĦæ²": 2109,
      "éĵ¶": 2110,
      "çļĦæĮ": 2111,
      "ç²ī": 2112,
      "èģļ": 2113,
      "ä»¤äºº": 2114,
      "èĲ¨": 2115,
      "æķ°éĩı": 2116,
      "åį±": 2117,
      "æī§": 2118,
      "ä¹ħ": 2119,
      "ç¹": 2120,
      "æĺ¯åľ¨": 2121,
      "æ°§": 2122,
      "èĻļ": 2123,
      "æķħ": 2124,
      "»åĬ¨": 2125,
      "éĶĢåĶ®": 2126,
      "ä¼ļè®®": 2127,
      "è±Ĩ": 2128,
      "è¶ħè¿ĩ": 2129,
      "åĬ±": 2130,
      "åı¯ä»¥éĢļè¿ĩ": 2131,
      "åģ¥èº«": 2132,
      "åħ°": 2133,
      "æĢĿèĢĥ": 2134,
      "åı«": 2135,
      "å¤§åĪ©": 2136,
      "ä¸ĢçĽ´": 2137,
      "åıĺæļĸ": 2138,
      "çľģ": 2139,
      "åĨ³çŃĸ": 2140,
      "æ³³": 2141,
      "ç»§": 2142,
      "ç»ıåİĨ": 2143,
      "è®©äºº": 2144,
      "æľĢåĸľæ¬¢": 2145,
      "å°Ħ": 2146,
      "çĶµè§Ĩ": 2147,
      "âĢĶ": 2148,
      "éĢĤå½ĵ": 2149,
      "è¿Ļæĺ¯ä¸Ģä¸ª": 2150,
      "ä¼½": 2151,
      "åįĬ": 2152,
      "ä½¿å¾Ĺ": 2153,
      "æĹ¶å°ļ": 2154,
      "ä¹łæĥ¯": 2155,
      "æıĲåĪ°äºĨ": 2156,
      "æŃī": 2157,
      "æıĲåıĸåĩº": 2158,
      "æĭ¼": 2159,
      "çļĦä¸»é¢ĺ": 2160,
      "çº½": 2161,
      "æĿ¿": 2162,
      "å¹´è½»": 2163,
      "çļĦæĦŁ": 2164,
      "ä»¥ä¾¿": 2165,
      "é«ĺçļĦ": 2166,
      "åĳ¼åĲ¸": 2167,
      "æ·»åĬł": 2168,
      "çĭ¬çī¹": 2169,
      "ä¿ĥè¿Ľ": 2170,
      "è°ģ": 2171,
      "çģ¾": 2172,
      "åŃ¤": 2173,
      "çĶŁæĪĲåķĨåĵģ": 2174,
      "è´Ńçī©": 2175,
      "éĵ¾": 2176,
      "ä»ĭç»įäºĨ": 2177,
      "ä¸Ģä½į": 2178,
      "çļĦæĳĺè¦ģ": 2179,
      "è¡ĮæĺŁ": 2180,
      "çļĦç¬": 2181,
      "èĤ¡": 2182,
      "çļĦæĬĢæľ¯": 2183,
      "ľä¼½": 2184,
      "è°Ī": 2185,
      "å¼ºè°ĥ": 2186,
      "å¡ĳæĸĻ": 2187,
      "ç«¯": 2188,
      "æľīåĬ©äºİ": 2189,
      "èģĮä¸ļ": 2190,
      "å°Ĩä¼ļ": 2191,
      "éĢīé¡¹": 2192,
      "ç¡Ģ": 2193,
      "çļĦå°ı": 2194,
      "åŁºç¡Ģ": 2195,
      "èĪ¬": 2196,
      "å°ıæĺİæľī": 2197,
      "æŃ»": 2198,
      "æ±ī": 2199,
      "åĲįè¯į": 2200,
      "çŃīé¢ĨåŁŁ": 2201,
      "æ¸ħæĻ°": 2202,
      "æıĲä¾Ľä¸Ģä¸ª": 2203,
      "å¤«": 2204,
      "æ¸©åº¦": 2205,
      "æĬĢå·§": 2206,
      "å½¢å®¹": 2207,
      "ä½¿åħ¶æĽ´": 2208,
      "æĲľç´¢": 2209,
      "æľĿ": 2210,
      "æĺİäºĨ": 2211,
      "æĮīçħ§": 2212,
      "ç¢³": 2213,
      "ç»ĥä¹ł": 2214,
      "50": 2215,
      "çī©è´¨": 2216,
      "ç¬¬äºĮ": 2217,
      "æİĴæĶ¾": 2218,
      "çŁŃè¯Ń": 2219,
      "äººå·¥æĻºèĥ½çļĦ": 2220,
      "éĻĪ": 2221,
      "æĭ¿": 2222,
      "å¢ŀå¼º": 2223,
      "è°¢è°¢": 2224,
      "åħ¬åı¸çļĦ": 2225,
      "ä½įäºİ": 2226,
      "ä¸¤ä¸ªåı¥åŃĲ": 2227,
      "æ´Ĺ": 2228,
      "ä½Ļ": 2229,
      "æĦıæĢĿ": 2230,
      "è¿Ļä¸ªåı¥åŃĲ": 2231,
      "è¿·": 2232,
      "å¤ļä¸ª": 2233,
      "çļĦè¯Ŀ": 2234,
      "çļĦçľ": 2235,
      "æĦıè¯Ĩ": 2236,
      "è¯·åĳĬè¯īæĪĳ": 2237,
      "æĬ±æŃī": 2238,
      "ç½ĳç«Ļ": 2239,
      "è¡Ģ": 2240,
      "æĽ¾": 2241,
      "æĸĩåŃ¦": 2242,
      "ç»ŃåĨĻ": 2243,
      "çĶľ": 2244,
      "è¯Ħä»·": 2245,
      "åľ¨å®¶": 2246,
      "äº¤æµģ": 2247,
      "çļĦç¤": 2248,
      "ä»ĺ": 2249,
      "çĪ±æĥħ": 2250,
      "æ¥¼": 2251,
      "è·Ł": 2252,
      "æĸ¹åĲĳ": 2253,
      "çº½çº¦": 2254,
      "åĢ¼å¾Ĺ": 2255,
      "ç©ºæ°Ķ": 2256,
      "åºĬ": 2257,
      "å°Ĭ": 2258,
      "ç¾İåĳ³": 2259,
      "åŁºæľ¬": 2260,
      "åľ°çĤ¹": 2261,
      "åĬĽåĴĮ": 2262,
      "éľ²": 2263,
      "ç»Ļåĩºä¸Ģä¸ª": 2264,
      "ä¸įè¦ģ": 2265,
      "æĹ¥æľ¬": 2266,
      "çĥĪ": 2267,
      "æĦıä¹ī": 2268,
      "è¸": 2269,
      "ç»ıéªĮ": 2270,
      "éĢŁåº¦": 2271,
      "åģļåĩº": 2272,
      "å®ł": 2273,
      "åİŁå§ĭ": 2274,
      "ä¼´": 2275,
      "çī©åĵģ": 2276,
      "è¿ĻéĩĮ": 2277,
      "ä¸įåı¯": 2278,
      "ç³ķ": 2279,
      "æŃ£éĿ¢": 2280,
      "çĮ®": 2281,
      "ä¸¥éĩį": 2282,
      "ç»ıå¸¸": 2283,
      "æľīä¸Ģä¸ª": 2284,
      "çļĦæ°´": 2285,
      "æ¸¸æ³³": 2286,
      "ç»Ļå®ļä¸Ģä¸ª": 2287,
      "ç¿»è¯ĳæĪĲ": 2288,
      "åĪĽå»º": 2289,
      "ä¸Ģç¯ĩæĸĩç«ł": 2290,
      "æĦī": 2291,
      "åŃ¦æł¡": 2292,
      "è¡Ĺ": 2293,
      "ä¸Ĭæµ·": 2294,
      "å®¹æĺĵ": 2295,
      "åī©ä¸ĭ": 2296,
      "æĬĢèĥ½": 2297,
      "ç§ĳåŃ¦å®¶": 2298,
      "åģľ": 2299,
      "èģĶç³»": 2300,
      "çĨĬ": 2301,
      "è¯¾": 2302,
      "èĲ¥åħ»": 2303,
      "çĳľä¼½": 2304,
      "åħ¨çĲĥåıĺæļĸ": 2305,
      "æĭħ": 2306,
      "å²Ľ": 2307,
      "åĽ½å®¶": 2308,
      "è¿ĩåİ»": 2309,
      "å¤ļç§į": 2310,
      "é¼ĵ": 2311,
      "çļĦçĪ": 2312,
      "éĿ©": 2313,
      "æ´ŀ": 2314,
      "çĻ»": 2315,
      "ç¹ģ": 2316,
      "æ£Ĵ": 2317,
      "å¥ĸ": 2318,
      "æ¶īåıĬ": 2319,
      "è§Ĩè§ī": 2320,
      "çĽ¸åĲĮ": 2321,
      "èĭ±è¯Ń": 2322,
      "é¥°": 2323,
      "å½¢æĪĲ": 2324,
      "åĲĮæĹ¶ä¹Ł": 2325,
      "æķ´ä¸ª": 2326,
      "è·Ŀ": 2327,
      "æĦŁè§ī": 2328,
      "çĦ¦èĻĳ": 2329,
      "è¿Ļæ®µæĸĩæľ¬": 2330,
      "åĿı": 2331,
      "çļĦæľĢ": 2332,
      "åı£åĳ³": 2333,
      "éĵħ": 2334,
      "åģı": 2335,
      "å¸¸è§ģ": 2336,
      "ç»ĦæĪĲ": 2337,
      "åĲĪéĢĤ": 2338,
      "æķ£æŃ¥": 2339,
      "èµı": 2340,
      "å¿ĺ": 2341,
      "12": 2342,
      "åĵªä¸ª": 2343,
      "å¯¹è¯Ŀ": 2344,
      "é¢Ŀ": 2345,
      "è¢ĭ": 2346,
      "çģ¯": 2347,
      "æ²ī": 2348,
      "æĦ¿": 2349,
      "ä¸ªç³ĸæŀľ": 2350,
      "åĭĩ": 2351,
      "åħŃ": 2352,
      "é¡¿": 2353,
      "è§Ĵèī²": 2354,
      "è´µ": 2355,
      "èĢĲ": 2356,
      "èĦļ": 2357,
      "åı£æĦŁ": 2358,
      "è¯įè¯Ń": 2359,
      "å¹³è¡¡": 2360,
      "æľīäºĽ": 2361,
      "äººåĳĺ": 2362,
      "åı¯ä»¥åľ¨": 2363,
      "åĲĪä½ľ": 2364,
      "èĩªæĪĳ": 2365,
      "ç«¥": 2366,
      "çļĦæ´": 2367,
      "æ°´å¹³": 2368,
      "çĶŁæĪĲåķĨåĵģæĸĩæ¡Ī": 2369,
      "ãĢĭãĢģ": 2370,
      "æĹ¥å¸¸": 2371,
      "æ£®": 2372,
      "100": 2373,
      "çļĦæ°Ķ": 2374,
      "è½¯ä»¶": 2375,
      "è´§": 2376,
      "ä¸ĭæĿ¥": 2377,
      "ç³»åĪĹ": 2378,
      "åĪĨéĴŁ": 2379,
      "å·§åħĭ": 2380,
      "æĲŃéħį": 2381,
      "è¯·ç»ĻæĪĳ": 2382,
      "æĿ¡ä»¶": 2383,
      "åħ±æľī": 2384,
      "å¿«ä¹Ĳ": 2385,
      "ç¼ĵè§£": 2386,
      "çļĦå¥½": 2387,
      "çļĦä¸»": 2388,
      "æµ·æ´ĭ": 2389,
      "ç«ŀ": 2390,
      "å®łçī©": 2391,
      "åºĶå¯¹": 2392,
      "ç¤¾äº¤åªĴä½ĵ": 2393,
      "æĹ¥æľŁ": 2394,
      "æĬ½åıĸ": 2395,
      "å¿Ĩ": 2396,
      "å®Ļ": 2397,
      "æĴŃ": 2398,
      "éĢĶ": 2399,
      "ç»¿èī²": 2400,
      "ç»§ç»Ń": 2401,
      "æķĪæŀľ": 2402,
      "èĮĥåĽ´": 2403,
      "æł¹æį®ä»¥ä¸ĭ": 2404,
      "éĵħç¬Ķ": 2405,
      "åĲ«ä¹ī": 2406,
      "çļĦæĸ¹å¼ı": 2407,
      "å¯Ł": 2408,
      "æ£ĢæŁ¥": 2409,
      "åıªæľī": 2410,
      "å¤§åŃ¦": 2411,
      "æĪĳæĹłæ³ķ": 2412,
      "æĹ©ä¸Ĭ": 2413,
      "ä¸ĸçķĮä¸ĬæľĢ": 2414,
      "çļĦæĹ¶éĹ´": 2415,
      "å¯Ĵ": 2416,
      "éĿ¢ä¸´": 2417,
      "åĪĽä½ľ": 2418,
      "è¿Ľä¸ĢæŃ¥": 2419,
      "å·¦": 2420,
      "å®ŀéĻħ": 2421,
      "è¿ĽæŃ¥": 2422,
      "ç£": 2423,
      "ç±į": 2424,
      "çĽ¸ä¼¼": 2425,
      "å®ĩå®Ļ": 2426,
      "åıĤä¸İ": 2427,
      "çļĦæ®": 2428,
      "çİ°å®ŀ": 2429,
      "æ¹ĸ": 2430,
      "æ»¡è¶³": 2431,
      "åĨĻä½ľ": 2432,
      "å·§åħĭåĬĽ": 2433,
      "ä¸Ģç»Ħ": 2434,
      "èĥĮæĻ¯": 2435,
      "æļ´": 2436,
      "çļĦéĩįè¦ģæĢ§": 2437,
      "éĸ": 2438,
      "ä»¿": 2439,
      "çĶµèĦĳ": 2440,
      "æĽ´å¥½çļĦ": 2441,
      "è¿Ļç¯ĩ": 2442,
      "æ°Ķæ¸©": 2443,
      "åŃ£èĬĤ": 2444,
      "è¿Ļä¸Ģ": 2445,
      "åľĨ": 2446,
      "æĪ·å¤ĸ": 2447,
      "å°ıæĹ¶": 2448,
      "è¿ĩç¨ĭä¸Ń": 2449,
      "äººçī©": 2450,
      "åĨĴ": 2451,
      "èĿ": 2452,
      "è·³": 2453,
      "æµģçķħ": 2454,
      "çļĦåľ°æĸ¹": 2455,
      "åĽ¢éĺŁ": 2456,
      "ä¾ĭåŃĲ": 2457,
      "éħ±": 2458,
      "ä¿Ŀåģ¥": 2459,
      "è°·": 2460,
      "åİļ": 2461,
      "å¼ķèµ·": 2462,
      "éŃĶ": 2463,
      "åħĥç´ł": 2464,
      "é¢ĦæĬ¥": 2465,
      "å¤ıåŃ£": 2466,
      "..": 2467,
      "ãĢĭãĢģãĢĬ": 2468,
      "äºĴèģĶç½ĳ": 2469,
      "äºĭå®ŀ": 2470,
      "éĨĴ": 2471,
      "æīĢæľīçļĦ": 2472,
      "åĪĨäº«": 2473,
      "è¯įæ±ĩ": 2474,
      "åĪĹè¡¨": 2475,
      "åĬĽéĩı": 2476,
      "å°Ĩä»¥ä¸ĭ": 2477,
      "ç¥ŀç»ı": 2478,
      "é»İ": 2479,
      "ä¸ĭæĸĩ": 2480,
      "åĩī": 2481,
      "ä¸įè¿ĩ": 2482,
      "åı³": 2483,
      "æĻļä¸Ĭ": 2484,
      "åıĹæ¬¢è¿İ": 2485,
      "ä»įçĦ¶": 2486,
      "èĨ": 2487,
      "éĽħ": 2488,
      "ä¸ªæĢ§": 2489,
      "æ»ĳ": 2490,
      "åĢĳ": 2491,
      "è®©ä½ł": 2492,
      "çļĦçłĶç©¶": 2493,
      "ç§Ģ": 2494,
      "æĬ¥åĳĬ": 2495,
      "é«ĺæķĪ": 2496,
      "æıĲä¾ĽäºĨ": 2497,
      "ç±»åĪ«": 2498,
      "çļĦåįķè¯į": 2499,
      "çİ¯å¢ĥä¿ĿæĬ¤": 2500,
      "éĴĪå¯¹": 2501,
      "éĿł": 2502,
      "çļĦåĨħå®¹": 2503,
      "çĦ¶èĢĮ": 2504,
      "ç§ĳå¹»": 2505,
      "çĨŁ": 2506,
      "çļĦé£Łçī©": 2507,
      "ä¼ĳéĹ²": 2508,
      "çļĦæ®µ": 2509,
      "åĨł": 2510,
      "æĬķèµĦ": 2511,
      "æµĵ": 2512,
      "èİ·åıĸ": 2513,
      "å¤ªç©º": 2514,
      "çĤº": 2515,
      "ä¼°": 2516,
      "å¹³åĿĩ": 2517,
      "å¡Ķ": 2518,
      "å®½": 2519,
      "30": 2520,
      "åį³åı¯": 2521,
      "ä¸ĭåĪĹ": 2522,
      "éģĹ": 2523,
      "è®©æĪĳä»¬": 2524,
      "éļĲç§ģ": 2525,
      "æĻ¯çĤ¹": 2526,
      "å®¶å±ħ": 2527,
      "ä¹ĺ": 2528,
      "18": 2529,
      "èĹı": 2530,
      "å®«": 2531,
      "æĦŁè°¢": 2532,
      "åıĸå¾Ĺ": 2533,
      "æıĲåĩº": 2534,
      "ç¨³": 2535,
      "èį¯çī©": 2536,
      "å®Ī": 2537,
      "è¯´æĺİ": 2538,
      "çļĦæ®µèĲ½": 2539,
      "ä¸Ģæł·": 2540,
      "çļĦæĦıæĢĿ": 2541,
      "è¿Ļå®¶": 2542,
      "çļĦæµ·": 2543,
      "æĬĺ": 2544,
      "æľīçĿĢ": 2545,
      "__": 2546,
      "åĨĻä¸Ģä¸ª": 2547,
      "åĩºæĿ¥": 2548,
      "æī¿": 2549,
      "åºĶçĶ¨äºİ": 2550,
      "è¯Ńè¨Ģæ¨¡åŀĭ": 2551,
      "åĩºå¤Ħ": 2552,
      "æķĳ": 2553,
      "åĽ½éĻħ": 2554,
      "æĿĳ": 2555,
      "åĮ»çĸĹé¢ĨåŁŁ": 2556,
      "æĶ¿çŃĸ": 2557,
      "ä¸Ŀ": 2558,
      "éħ¸": 2559,
      "å°į": 2560,
      "ä»İæĸĩç«łä¸ŃæıĲåıĸåĩº": 2561,
      "æıĲä¾Ľä¸ĢäºĽ": 2562,
      "æ°¸": 2563,
      "æĥħèĬĤ": 2564,
      "å½ĵåīį": 2565,
      "Ġ-": 2566,
      "æİĮ": 2567,
      "åĳ³éģĵ": 2568,
      "æľªæĿ¥çļĦ": 2569,
      "æĤ£èĢħ": 2570,
      "æļĹ": 2571,
      "çļĦæĹ¶åĢĻ": 2572,
      "æĮ¥": 2573,
      "æľīè¶£çļĦ": 2574,
      "å¹¸ç¦ı": 2575,
      "åºŁ": 2576,
      "ä»¥ä¸ĭæĺ¯ä¸Ģ": 2577,
      "æ¨¡å¼ı": 2578,
      "çİī": 2579,
      "ä¹³": 2580,
      "ä¹Ŀ": 2581,
      "è´£ä»»": 2582,
      "ä¸ĢåĲį": 2583,
      "ï¼ĮâĢľ": 2584,
      "èĦĤ": 2585,
      "å°ģ": 2586,
      "åĮĸçļĦ": 2587,
      "æ©ĻåŃĲ": 2588,
      "å¢ŀéķ¿": 2589,
      "æ½ľ": 2590,
      "æĵį": 2591,
      "éĻĦ": 2592,
      "æĪĲè¯Ńåĩºå¤Ħ": 2593,
      "åĽłä¸ºå®ĥ": 2594,
      "åĩıè½»": 2595,
      "é¡¾": 2596,
      "çļĦçĥ": 2597,
      "åĲĪçĲĨ": 2598,
      "è¶³å¤Ł": 2599,
      "çĽĺ": 2600,
      "ä¸Ĭåįĩ": 2601,
      "åľ°æĸ¹": 2602,
      "æĺł": 2603,
      "åľ¨çº¿": 2604,
      "çļĦå¤§": 2605,
      "åĢĴ": 2606,
      "åķĨä¸ļ": 2607,
      "åĺ": 2608,
      "è·Ŀç¦»": 2609,
      "å¤©ç©º": 2610,
      "éŁ©": 2611,
      "å¹³åı°": 2612,
      "çºłéĶĻ": 2613,
      "è¶³çĲĥ": 2614,
      "ç®±": 2615,
      "15": 2616,
      "å¤ļæł·": 2617,
      "çĽĽ": 2618,
      "çº¸": 2619,
      "è°ĥæķ´": 2620,
      "éĤ£éĩĮ": 2621,
      "åĪ¶éĢł": 2622,
      "éĩıåŃĲ": 2623,
      "åĮ»çĸĹä¿Ŀåģ¥": 2624,
      "è¡£æľį": 2625,
      "è¯»èĢħ": 2626,
      "è©": 2627,
      "åĬ¨ä½ľ": 2628,
      "æ´¾": 2629,
      "çīĽå¥¶": 2630,
      "è¯Ńæ³ķéĶĻè¯¯": 2631,
      "æ±ł": 2632,
      "æĪĳä¸į": 2633,
      "åĲĮä¹īè¯į": 2634,
      "å·´é»İ": 2635,
      "æĪĳå¾Ī": 2636,
      "æ·±åħ¥": 2637,
      "ä¸ºæĪĳ": 2638,
      "åŁ¹": 2639,
      "æĬĹ": 2640,
      "è·ĳæŃ¥": 2641,
      "åħ«": 2642,
      "æ¬£": 2643,
      "æŀ¶": 2644,
      "èĲ¥éĶĢ": 2645,
      "èĳĹåĲįçļĦ": 2646,
      "åĨ²": 2647,
      "åħ¶ä¸ŃçļĦ": 2648,
      "åĪº": 2649,
      "åĳ¨æľ«": 2650,
      "è¾Ĩ": 2651,
      "ç»ĨèĬĤ": 2652,
      "æĸ¹ä¾¿": 2653,
      "æıĲåįĩ": 2654,
      "èĤ¤": 2655,
      "çµ": 2656,
      "è²": 2657,
      "æł¸": 2658,
      "éº¦": 2659,
      "ä¼ĺåĮĸ": 2660,
      "ç¬¦åĲĪ": 2661,
      "æı¡": 2662,
      "éĢĤåºĶ": 2663,
      "å¹¿åĳĬ": 2664,
      "çļĦä¸»è¦ģè§ĤçĤ¹": 2665,
      "éĢĻ": 2666,
      "çļĦæĥħåĨµ": 2667,
      "åĶ±": 2668,
      "ç¥Ŀ": 2669,
      "è®¢": 2670,
      "åĿ¦": 2671,
      "éªĳ": 2672,
      "åĽ°éļ¾": 2673,
      "æĪĳéľĢè¦ģ": 2674,
      "æĭ¼åĨĻ": 2675,
      "çº¢èī²": 2676,
      "ä¸ĥ": 2677,
      "å¹¶åľ¨": 2678,
      "ç¥ŀç§ĺ": 2679,
      "æĦŁåıĹ": 2680,
      "æĢ»æĺ¯": 2681,
      "ç¼©": 2682,
      "çļĦå·¥ä½ľ": 2683,
      "å¸ģ": 2684,
      "æĦıå¤§åĪ©": 2685,
      "ä¾Ĩ": 2686,
      "ä¸Ńæĸĩ": 2687,
      "çļĦæĸ°": 2688,
      "çİĽ": 2689,
      "çī©çĲĨ": 2690,
      "å§Ĩ": 2691,
      "çľĭçĶµå½±": 2692,
      "å¸¦æĿ¥äºĨ": 2693,
      "ä¹İ": 2694,
      "æĶ¹è¿Ľ": 2695,
      "åħ³éĶ®ä¿¡æģ¯": 2696,
      "æĺ¯ä¸Ģéĥ¨": 2697,
      "æ³ķå¾ĭ": 2698,
      "æ³°": 2699,
      "åħ¬åħ±": 2700,
      "æİ¨åĬ¨": 2701,
      "ä¸Ģå®¶": 2702,
      "éĩįçĤ¹": 2703,
      "å®ľ": 2704,
      "çĥŁ": 2705,
      "éģĵå¾·": 2706,
      "ä¹¦ç±į": 2707,
      "éĶħ": 2708,
      "åĵªéĩĮ": 2709,
      "åĳĺå·¥": 2710,
      "åĪĹåĩº": 2711,
      "åĲ¯": 2712,
      "çļĦæĢ»": 2713,
      "çĹĽ": 2714,
      "è®¿": 2715,
      "ä¹ĭåīį": 2716,
      "çĬ¶åĨµ": 2717,
      "æµĭè¯ķ": 2718,
      "ç¯®": 2719,
      "è½¬æį¢": 2720,
      "åĬ³": 2721,
      "å®ĥä»¬çļĦ": 2722,
      "èĭı": 2723,
      "åı¥åŃĲä¸Ń": 2724,
      "èĩªè¡Į": 2725,
      "æ··": 2726,
      "åıĳå¸ĥ": 2727,
      "çŃĸçķ¥": 2728,
      "å®ļä¹ī": 2729,
      "çĥ§": 2730,
      "æł¹æį®æıĲä¾Ľ": 2731,
      "æľºæŀĦ": 2732,
      "çĶŁæĢģç³»ç»Ł": 2733,
      "éļľ": 2734,
      "å¹ħ": 2735,
      "ç©ºéĹ´": 2736,
      "æĸ°éĹ»æĬ¥éģĵ": 2737,
      "åı¯æĮģç»Ńåıĳå±ķ": 2738,
      "æģĲ": 2739,
      "æĺĵäºİ": 2740,
      "çīĻ": 2741,
      "çļĦæłĩé¢ĺ": 2742,
      "æµģè¡Į": 2743,
      "åīįå¾Ģ": 2744,
      "ä¸ľè¥¿": 2745,
      "æĪĳä»¬åºĶè¯¥": 2746,
      "æģ¶": 2747,
      "å¾Ħ": 2748,
      "çłĶ": 2749,
      "è½»æĿ¾": 2750,
      "å¥ĭ": 2751,
      "è¿Ļæ¬¾": 2752,
      "æĹ§": 2753,
      "éĻĲåĪ¶": 2754,
      "æ¨¡æĭŁ": 2755,
      "æİī": 2756,
      "åĪĨç»Ļ": 2757,
      "è¯·æıĲä¾Ľ": 2758,
      "è®ºæĸĩ": 2759,
      "ä¸Ģå¤©": 2760,
      "èĥ½åĲ¦": 2761,
      "çĤİ": 2762,
      "æĩĤ": 2763,
      "åºĶçĶ¨ç¨ĭåºı": 2764,
      "çļĦåİĨåı²": 2765,
      "çĬ¯": 2766,
      "æİ¨çĲĨ": 2767,
      "è´¡": 2768,
      "ä¸ĸçºª": 2769,
      "å¿ħè¦ģ": 2770,
      "çıł": 2771,
      "ç±»ä¼¼": 2772,
      "ä»¥ä¸Ĭ": 2773,
      "çļĦç¤¾": 2774,
      "çĶ¨æĿ¥": 2775,
      "çļĦæıı": 2776,
      "éķ¿åº¦": 2777,
      "çŃ¾": 2778,
      "æĸĹ": 2779,
      "å»ºè®®æĤ¨": 2780,
      "éģį": 2781,
      "åĨ¥": 2782,
      "æ°Ķä½ĵ": 2783,
      "çĽ®çļĦåľ°": 2784,
      "ä¸ĢèĪ¬": 2785,
      "åĤ¨": 2786,
      "çĽ¸åħ³çļĦ": 2787,
      "å¦Ī": 2788,
      "æľīåĵªäºĽ": 2789,
      "æĺŁæľŁ": 2790,
      "åĵ¥": 2791,
      "æ¾": 2792,
      "æµ·æ»©": 2793,
      "æĤ¦": 2794,
      "æĿŁ": 2795,
      "å¿Ļ": 2796,
      "åĿļæĮģ": 2797,
      "éĽ¶": 2798,
      "ä½Ľ": 2799,
      "åĬ¨è¯į": 2800,
      "åĪĨåĪ«": 2801,
      "æĥħç»ª": 2802,
      "ä¹¡": 2803,
      "ä¸Ģæľ¬": 2804,
      "æĢĿæĥ³": 2805,
      "è¾£": 2806,
      "æī§è¡Į": 2807,
      "åŃ¸": 2808,
      "æ¹¿": 2809,
      "æĻ´": 2810,
      "åģ¥åº·çļĦ": 2811,
      "èģĬå¤©": 2812,
      "é¥¼": 2813,
      "éª¤": 2814,
      "é¼ĵåĬ±": 2815,
      "å¸Ŀ": 2816,
      "äººç±»çļĦ": 2817,
      "èĩªåĬ¨é©¾é©¶": 2818,
      "æĬĢæľ¯çļĦ": 2819,
      "æĪĳåľ¨": 2820,
      "ç§ĭå¤©": 2821,
      "å·¥ç¨ĭ": 2822,
      "çļĦçĭ": 2823,
      "æŃ£ç¡®çļĦ": 2824,
      "è®²è¿°äºĨ": 2825,
      "çļĦæ³": 2826,
      "åŃ¦ä¹łåĴĮ": 2827,
      "çļĦæĻº": 2828,
      "èĽĭç³ķ": 2829,
      "çĽ´æİ¥": 2830,
      "çİ°è±¡": 2831,
      "æĺİç¡®": 2832,
      "è¾¾åĪ°": 2833,
      "çļĦçģ": 2834,
      "è®°å½ķ": 2835,
      "Ġ=": 2836,
      "ä¸Ģæ¬¾": 2837,
      "æ¼Ķåĳĺ": 2838,
      "å¼ĢæĶ¾": 2839,
      "éĢĲæ¸Ĳ": 2840,
      "å®¶äºº": 2841,
      "çħ®": 2842,
      "æĶ»": 2843,
      "æ¶¦": 2844,
      "æĸĩæľ¬ä¸ŃçļĦ": 2845,
      "çĬ¶æĢģ": 2846,
      "è¯·æıĲåıĸ": 2847,
      "æĢ¥": 2848,
      "æĹłè®º": 2849,
      "ï¼ļãĢĬ": 2850,
      "åºĵ": 2851,
      "å®ģ": 2852,
      "æ¶Īè´¹": 2853,
      "å¼ĥ": 2854,
      "æĢ»ç»Ł": 2855,
      "åģ¥åº·é¥®é£Ł": 2856,
      "äº¡": 2857,
      "ç»ĺ": 2858,
      "çļĦæ¦Ĥ": 2859,
      "çº¯": 2860,
      "åįģåĪĨ": 2861,
      "éľĩ": 2862,
      "ç®Ģè¦ģ": 2863,
      "åĪĨç±»ä¸º": 2864,
      "çĩĥ": 2865,
      "è¯ŃéŁ³è¯ĨåĪ«": 2866,
      "±ä¹Ĳ": 2867,
      "æĺ¯çĶ±": 2868,
      "äº¿": 2869,
      "202": 2870,
      "ä¸ŃæľĢ": 2871,
      "è¡¨è¾¾äºĨ": 2872,
      "æ¸©æļĸ": 2873,
      "æĢĢ": 2874,
      "ç®Ģæ´ģæĺİäºĨ": 2875,
      "å¥¹çļĦ": 2876,
      "åĽº": 2877,
      "åķĬ": 2878,
      "çļĦçŁŃ": 2879,
      "æī©": 2880,
      "åŃ¤çĭ¬": 2881,
      "è°ĥæŁ¥": 2882,
      "çŁŃæĸĩ": 2883,
      "èµŀ": 2884,
      "åı¯ä»¥ä½¿çĶ¨": 2885,
      "æĪĲéķ¿": 2886,
      "èĤ¥": 2887,
      "æĿ¥èĩª": 2888,
      "æī¾åĩº": 2889,
      "æ±ģ": 2890,
      "èĽĭçĻ½": 2891,
      "å°¾": 2892,
      "è´¡çĮ®": 2893,
      "ä»ĸåľ¨": 2894,
      "çļĦçĪ±": 2895,
      "çļĦæĻ¯": 2896,
      "æ±¤": 2897,
      "äººçĶŁ": 2898,
      "çļĦæĢĿ": 2899,
      "è§£åĨ³æĸ¹æ¡Ī": 2900,
      "æİ¨å¹¿": 2901,
      "æĪĳè®¤ä¸º": 2902,
      "æ¡Į": 2903,
      "è³": 2904,
      "\"<|": 2905,
      "è¿Ļæľ¬ä¹¦": 2906,
      "æĸĩç«łä¸ŃçļĦ": 2907,
      "¡èĲ": 2908,
      "çĴ": 2909,
      "æĸĩæľ¬è¿Ľè¡Į": 2910,
      "å´": 2911,
      "èĭ¦": 2912,
      "å®Įåħ¨": 2913,
      "è¿½æ±Ĥ": 2914,
      "åħ·ä½ĵçļĦ": 2915,
      "è°±": 2916,
      "æĪĲæľ¬": 2917,
      "çĬ¬": 2918,
      "çļĦä¸Ģä¸ª": 2919,
      "æľµ": 2920,
      "ä¿ĿæĬ¤çİ¯å¢ĥ": 2921,
      "æ·±åĪ»": 2922,
      "çļĦä¼ĺ": 2923,
      "çĽĲ": 2924,
      "çļĦæ´»åĬ¨": 2925,
      "æĤ¨éľĢè¦ģ": 2926,
      "è´Ŀ": 2927,
      "åıįåºĶ": 2928,
      "æ£®æŀĹ": 2929,
      "çĹħæ¯Ĵ": 2930,
      "å°¤": 2931,
      "ï¼ŁâĢĿ": 2932,
      "èĵĿèī²": 2933,
      "å¦Ļ": 2934,
      "èĪ¹": 2935,
      "èĩªåĬ¨åĮĸ": 2936,
      "åºĨ": 2937,
      "«èĲ¨": 2938,
      "ç»ĵåĲĪ": 2939,
      "åĹ": 2940,
      "åĳĪ": 2941,
      "åıĳæĮ¥": 2942,
      "æĿĢ": 2943,
      "çĿ¡çľł": 2944,
      "å¤ªéĺ³ç³»": 2945,
      "çļĦæııè¿°": 2946,
      "å°Ĩåľ¨": 2947,
      "çĤĴ": 2948,
      "å®ĥåı¯ä»¥": 2949,
      "éķĩ": 2950,
      "åĩºèī²": 2951,
      "æ¼Ĥ": 2952,
      "èķī": 2953,
      "ç¾İå¥½çļĦ": 2954,
      "åĨįçĶŁ": 2955,
      "é¾Ħ": 2956,
      "éĿŀå¸¸å¥½": 2957,
      "èĭ±åĽ½": 2958,
      "çıį": 2959,
      "éĿ¢åĮħ": 2960,
      "å·¥ä¸ļ": 2961,
      "ä¹Łä¼ļ": 2962,
      "æľĢä½³": 2963,
      "Ģæľī": 2964,
      "æŁĲäºĽ": 2965,
      "ç½ª": 2966,
      "å±ķç¤º": 2967,
      "å°ıåŃ¦": 2968,
      "é¢Ħéĺ²": 2969,
      "èĢ³": 2970,
      "æĺ¾ç¤º": 2971,
      "å·Ŀ": 2972,
      "è¿Ļé¦ĸ": 2973,
      "çļĦè¯Ńè¨Ģ": 2974,
      "åĲĦä¸ª": 2975,
      "åľ£": 2976,
      "çªĹ": 2977,
      "å¯¿": 2978,
      "çĸ«æĥħ": 2979,
      "çĶ³": 2980,
      "æ¤Ĵ": 2981,
      "éĹŃ": 2982,
      "å¹´çļĦ": 2983,
      "åĨ¥æĥ³": 2984,
      "ç¶": 2985,
      "å¥ı": 2986,
      "æľĥ": 2987,
      "çĶŁæ´»ä¸Ń": 2988,
      "èĥģ": 2989,
      "èĭĹ": 2990,
      "ä¹°äºĨ": 2991,
      "æŃ¦": 2992,
      "çļĦç³": 2993,
      "æľĢæĸ°": 2994,
      "çĶŁåŃĺ": 2995,
      "ä¸ĢäºĽåħ³äºİ": 2996,
      "æĮĩåĩº": 2997,
      "åı¯èĥ½æĺ¯": 2998,
      "çĶŁæĹ¥": 2999,
      "Ġåľ¨": 3000,
      "ç¾İä¸½çļĦ": 3001,
      "èĻļæĭŁ": 3002,
      "æįŁ": 3003,
      "èĩªè¡Įè½¦": 3004,
      "é¦Ļèķī": 3005,
      "åĴĮåħ¶ä»ĸ": 3006,
      "é«ĺåħ´": 3007,
      "å¾ª": 3008,
      "åĶĲ": 3009,
      "æĿ°": 3010,
      "æĳĺ": 3011,
      "æľīæīĢ": 3012,
      "èĤĮ": 3013,
      "è´¥": 3014,
      "å¨ģèĥģ": 3015,
      "åı¯çĪ±": 3016,
      "åį·": 3017,
      "ä¸Ģéĥ¨": 3018,
      "è®¨è®ºäºĨ": 3019,
      "ä»£çłģ": 3020,
      "åº¦åĴĮ": 3021,
      "ç«ŀäºī": 3022,
      "ä»İè¿Ļç¯ĩæĸĩç«łä¸ŃæıĲåıĸåĩº": 3023,
      "åı¤ä»£": 3024,
      "åĮºåĿĹ": 3025,
      "çĶ°": 3026,
      "å¦Ĥä¸ĭ": 3027,
      "å½¢å®¹è¯į": 3028,
      "èĩ³å°ĳ": 3029,
      "åĴ¨": 3030,
      "è¿¹": 3031,
      "å·¦åı³": 3032,
      "æĭį": 3033,
      "å»¶": 3034,
      "å¯»æ±Ĥ": 3035,
      "çļĦæĭ": 3036,
      "å¼¹": 3037,
      "æĺ¯ä¸ŃåĽ½": 3038,
      "è¯Ħä¼°": 3039,
      "çļĦäºĭæĥħ": 3040,
      "å®ļæľŁ": 3041,
      "æ³¡": 3042,
      "æĵįä½ľ": 3043,
      "å¤§å®¶": 3044,
      "é¥®æĸĻ": 3045,
      "å¤§æ°Ķ": 3046,
      "èĤ¯": 3047,
      "éĴ¢": 3048,
      "çļĦæŃĮ": 3049,
      "æĹ¶ä»£": 3050,
      "æİ¢è®¨äºĨ": 3051,
      "èĦ±": 3052,
      "ç¬¦åı·": 3053,
      "è½®": 3054,
      "ä¸ĭåįĪ": 3055,
      "å®īæİĴ": 3056,
      "æ¦Ĥå¿µ": 3057,
      "å©ļ": 3058,
      "çļĦéŁ³ä¹Ĳ": 3059,
      "é¸¡èĽĭ": 3060,
      "åĴ¨è¯¢": 3061,
      "ç»ıè¿ĩ": 3062,
      "çļĦéĢīæĭ©": 3063,
      "æĪĳæľĢè¿ĳ": 3064,
      "èº«ä½ĵåģ¥åº·": 3065,
      "åįļçī©": 3066,
      "ä¿Ŀè¯ģ": 3067,
      "ŁéĢļ": 3068,
      "çļĦé£İæł¼": 3069,
      "çļĦæīĢæľī": 3070,
      "åľ¨ä¸Ģèµ·": 3071,
      "çĽ¸ä¿¡": 3072,
      "è½½": 3073,
      "æĬ½åıĸåĩº": 3074,
      "æ³ķåĽ½": 3075,
      "é£ĺ": 3076,
      "ªæĺİ": 3077,
      "åĩĢ": 3078,
      "è·µ": 3079,
      "ä½ĵèĤ²": 3080,
      "ç¿°": 3081,
      "æĸ¼": 3082,
      "åĽŀæĶ¶": 3083,
      "ä¸ĬéĿ¢": 3084,
      "æĪĳæ²¡æľī": 3085,
      "è¡¨éĿ¢": 3086,
      "ä¸Ģä¸ªäºº": 3087,
      "æĸ°é²ľ": 3088,
      "èİĵ": 3089,
      "çĺ": 3090,
      "åŃĹæ¯į": 3091,
      "æł¹æį®ç»Ļå®ļçļĦæĸĩæľ¬": 3092,
      "ä¸ĢæĿ¡": 3093,
      "è¡¥": 3094,
      "éĥ½ä¼ļ": 3095,
      "éº»": 3096,
      "âĢ¦": 3097,
      "æŃĮæĽ²": 3098,
      "æħ§": 3099,
      "è¾ħ": 3100,
      "å¹¶ä¸į": 3101,
      "åĨĻä¸Ģç¯ĩ": 3102,
      "çĶļ": 3103,
      "å¿ĥæĥħ": 3104,
      "ä¸»ä¹ī": 3105,
      "åłĤ": 3106,
      "å®ŀéªĮ": 3107,
      "è§£éĩĬä¸Ģä¸ĭ": 3108,
      "è¿ª": 3109,
      "èĥ½éĩı": 3110,
      "on": 3111,
      "åĸľå¥½": 3112,
      "éª¨": 3113,
      "çļĦçŃĶæ¡Ī": 3114,
      "è¿ĺåī©ä¸ĭ": 3115,
      "è§ĦåĪĴ": 3116,
      "éĥģ": 3117,
      "éĻĪè¿°": 3118,
      "èľľ": 3119,
      "å°Ĩä»¥ä¸ĭåı¥åŃĲ": 3120,
      "å£°éŁ³": 3121,
      "ãĢĭãĢĤ": 3122,
      "æĺ¯çļĦ": 3123,
      "GP": 3124,
      "å®Ĺ": 3125,
      "ç©¿çĿĢ": 3126,
      "çļĦæĥ³": 3127,
      "é½": 3128,
      "è¿ŀæİ¥": 3129,
      "æľĢå¥½": 3130,
      "ä½łéľĢè¦ģ": 3131,
      "ç¨³å®ļ": 3132,
      "è¿Ľåħ¥": 3133,
      "ç§»": 3134,
      "æ£ī": 3135,
      "ç¥ŀç»ıç½ĳç»ľ": 3136,
      "æĹ¨åľ¨": 3137,
      "ç®Ģçº¦": 3138,
      "åĮĸåŃ¦": 3139,
      "åĲ¹": 3140,
      "çļĦåŁİå¸Ĥ": 3141,
      "æŁ¥è¯¢": 3142,
      "åĴĮæĸĩåĮĸ": 3143,
      "é¼ł": 3144,
      "æ¦": 3145,
      "çĽ¸å¯¹": 3146,
      "ä¸Ģåħ±æľī": 3147,
      "çļĦæīĭ": 3148,
      "æ´Ľ": 3149,
      "ä¼ĺç§Ģ": 3150,
      "çĽ¸äºĴ": 3151,
      "å¹¶æıĲä¾Ľ": 3152,
      "åĮºåĿĹéĵ¾": 3153,
      "ä¸ºæĤ¨æıĲä¾Ľ": 3154,
      "å¥³åŃ©": 3155,
      "æĪ¿éĹ´": 3156,
      "çļĦé£İéĻ©": 3157,
      "åĪĽå»ºä¸Ģä¸ª": 3158,
      "è§ĦåĪĻ": 3159,
      "åĳ¨åĽ´": 3160,
      "ç¾İåħĥ": 3161,
      "çĽ¸åºĶ": 3162,
      "æľĢå¥½çļĦ": 3163,
      "å®ŀè·µ": 3164,
      "æ°ı": 3165,
      "æ°§åĮĸ": 3166,
      "åĨĴéĻ©": 3167,
      "æķ°æį®éĽĨ": 3168,
      "çľŁæŃ£": 3169,
      "çļĦç¬¬": 3170,
      "ä¸Ģæ®µæĸĩæľ¬": 3171,
      "æĥł": 3172,
      "å¨±ä¹Ĳ": 3173,
      "éĢĤéĩı": 3174,
      "åīįæĻ¯": 3175,
      "åĢŁ": 3176,
      "çĭ¬çī¹çļĦ": 3177,
      "è§Ĩé¢ĳ": 3178,
      "å£®": 3179,
      "å®¾": 3180,
      "æİ¥åıĹ": 3181,
      "ç¬¬ä¸Ģ": 3182,
      "å¼łä¸ī": 3183,
      "æķ°åŃ¦é¢ĺ": 3184,
      "èī¯å¥½çļĦ": 3185,
      "æĮĩå®ļ": 3186,
      "éĢ»": 3187,
      "éĽ·": 3188,
      "ä»Ķ": 3189,
      "ç§įç±»": 3190,
      "ä¹ĭåĲİ": 3191,
      "çģ¾å®³": 3192,
      "åĵº": 3193,
      "ç»©": 3194,
      "è¯¾ç¨ĭ": 3195,
      "è¯º": 3196,
      "éľĢè¦ģæ³¨æĦı": 3197,
      "å®Įæķ´": 3198,
      "æĻºèĥ½å®¶å±ħ": 3199,
      "æĹĭ": 3200,
      "éĩĮæľī": 3201,
      "è¯ļ": 3202,
      "çĻĮ": 3203,
      "è§Ĥä¼Ĺ": 3204,
      "åľ¨ä¸Ģä¸ª": 3205,
      "èº«å¿ĥ": 3206,
      "éĩįåĨĻä»¥ä¸ĭåı¥åŃĲ": 3207,
      "å«": 3208,
      "çĶŁæ´»æĸ¹å¼ı": 3209,
      "æ¸ħæ´ģ": 3210,
      "å¯¹çİ¯å¢ĥ": 3211,
      "æŁĲä¸ª": 3212,
      "ç²¾ç¥ŀ": 3213,
      "éĻĦè¿ĳ": 3214,
      "åįļçī©é¦Ĩ": 3215,
      "è¿Ļç¯ĩæĸĩç«łä¸Ń": 3216,
      "çļĦæ¯Ķ": 3217,
      "çĵ¶": 3218,
      "çºłæŃ£": 3219,
      "éĿ¢æĸĻ": 3220,
      "æĹ¢": 3221,
      "åĦ¿ç«¥": 3222,
      "èĭ¥": 3223,
      "æĹ©é¤Ĳ": 3224,
      "è¢ĸ": 3225,
      "åı¯åĨįçĶŁ": 3226,
      "èģªæĺİ": 3227,
      "å°Ĭéĩį": 3228,
      "è§¦": 3229,
      "æĺŁçĲĥ": 3230,
      "å®ĥæĺ¯": 3231,
      "åĽŀå®¶": 3232,
      "ä¸Ĭä¸ĭæĸĩ": 3233,
      "èĤª": 3234,
      "äººæ°ĳ": 3235,
      "çº¦ç¿°": 3236,
      "èĦĤèĤª": 3237,
      "ç»ķ": 3238,
      "éĿ¢å¯¹": 3239,
      "çī©ä½ĵ": 3240,
      "èİ«": 3241,
      "éĻĨ": 3242,
      "åĢ¾": 3243,
      "æµ®": 3244,
      "ç¨ĭåº¦": 3245,
      "åĲĽ": 3246,
      "æĺ¯ä¸Ģä½į": 3247,
      "éķľ": 3248,
      "çĪ¶": 3249,
      "çļĦæĮĳæĪĺ": 3250,
      "æİĮæı¡": 3251,
      "çļĦç©": 3252,
      "é»ĺ": 3253,
      "èĽĭçĻ½è´¨": 3254,
      "èĢĹ": 3255,
      "éĢ»è¾ĳ": 3256,
      "ä¸Ĭè¿°": 3257,
      "GPT": 3258,
      "èļ": 3259,
      "çľŁçļĦ": 3260,
      "ä¸»è¦ģè§ĤçĤ¹": 3261,
      "è¡«": 3262,
      "åħ¶æ¬¡": 3263,
      "é£İæĻ¯": 3264,
      "çļĦæķĪ": 3265,
      "å°ıçĭĹ": 3266,
      "æ³¨éĩį": 3267,
      "çĲĨè®º": 3268,
      "æīĢåľ¨": 3269,
      "è§Ī": 3270,
      "å¹´æĿ¥": 3271,
      "è¹": 3272,
      "ä¸»äºº": 3273,
      "è°ĵ": 3274,
      "æ¯ıä¸ªäººéĥ½": 3275,
      "æľŁéĹ´": 3276,
      "æľīè®¸å¤ļ": 3277,
      "200": 3278,
      "çļĦæ±": 3279,
      "çĪ±å¥½": 3280,
      "éĵ¶è¡Į": 3281,
      "éĩįå¤į": 3282,
      "å®¤æ°Ķä½ĵ": 3283,
      "æ·¡": 3284,
      "éļıæĹ¶": 3285,
      "æĹ¶æľŁ": 3286,
      "èħ¿": 3287,
      "é¢Ĺç³ĸæŀľ": 3288,
      "æ¶Īæŀģ": 3289,
      "è¿Ķ": 3290,
      "åĨ¬åŃ£": 3291,
      "èĬĤçº¦": 3292,
      "åħµ": 3293,
      "èī²å½©": 3294,
      "ç¾İå¥½": 3295,
      "âĢĶâĢĶ": 3296,
      "æķ¢": 3297,
      "åĵºä¹³": 3298,
      "æ²Ļæ»©": 3299,
      "å±ķçİ°": 3300,
      "å¡«": 3301,
      "éĢĢ": 3302,
      "æİ¨åĩº": 3303,
      "äº¤æĺĵ": 3304,
      "æĳĦåħ¥": 3305,
      "åĪĨåĪ°": 3306,
      "çİ¯å¢ĥæ±¡æŁĵ": 3307,
      "çĭ¬ç«ĭ": 3308,
      "çļĦèĥ½åĬĽ": 3309,
      "éĹª": 3310,
      "å±ĭ": 3311,
      "ä»¥ç¡®ä¿Ŀ": 3312,
      "åł¡": 3313,
      "å¹ķ": 3314,
      "çļĦå°ıè¯´": 3315,
      "ä¼Ĭ": 3316,
      "åĵģè´¨": 3317,
      "å¼ºè°ĥäºĨ": 3318,
      "çĵľ": 3319,
      "çĪĨ": 3320,
      "åı¹": 3321,
      "æĢĿç»´": 3322,
      "æĪĳæĥ³çŁ¥éģĵ": 3323,
      "ç®ĢåįķçļĦ": 3324,
      "è¶ħå¸Ĥ": 3325,
      "åıªæĺ¯": 3326,
      "å¥³æĢ§": 3327,
      "æīĺ": 3328,
      "åĲī": 3329,
      "æ¯ıä¸ªæľĭåıĭ": 3330,
      "åĽŀçŃĶéĹ®é¢ĺ": 3331,
      "å¾ĹåĪ°äºĨ": 3332,
      "å·¨å¤§": 3333,
      "é«ĺåº¦": 3334,
      "è¿ħ": 3335,
      "åī¯": 3336,
      "åĵģç§į": 3337,
      "ä¹ı": 3338,
      "ä¼ĺè´¨": 3339,
      "çļĦç¼": 3340,
      "ãĢĭï¼Į": 3341,
      "åĸ»": 3342,
      "ä¸ļåĬ¡": 3343,
      "å¦Ĥæŀľä½łåĸľæ¬¢": 3344,
      "ĠâĢľ": 3345,
      "ä¼ĳæģ¯": 3346,
      "æĹ¶éĹ´åĴĮ": 3347,
      "çĪ½": 3348,
      "æ·ĭ": 3349,
      "é¡¶": 3350,
      "åĪ°è¾¾": 3351,
      "å¹´é¾Ħ": 3352,
      "æģ©": 3353,
      "æ¸¯": 3354,
      "å¡ŀ": 3355,
      "å°ıæĺİæīĭ": 3356,
      "äºĭçī©": 3357,
      "èį£": 3358,
      "å¤§èĩªçĦ¶": 3359,
      "çļĦçĿ": 3360,
      "ç»Ļä½ł": 3361,
      "èªī": 3362,
      "æłĩåĩĨ": 3363,
      "æĦīå¿«": 3364,
      "æ¬£èµı": 3365,
      "è¿Ľè¡ĮåĪĨç±»": 3366,
      "æĦŁåıĹåĪ°": 3367,
      "çľĭèµ·æĿ¥": 3368,
      "å°¤åħ¶": 3369,
      "çļĦåİŁåĽł": 3370,
      "åĵ¦": 3371,
      "æİ¥ä¸ĭæĿ¥": 3372,
      "éĺ´": 3373,
      "æį·": 3374,
      "å»ºè®¾": 3375,
      "èĸĦ": 3376,
      "çĸ²": 3377,
      "éģµ": 3378,
      "ä¸ĢæĿ¯": 3379,
      "åģĩè®¾": 3380,
      "ä¹Łæľī": 3381,
      "äºĨè®¸å¤ļ": 3382,
      "éĤ£äºĽ": 3383,
      "æ®Ĭ": 3384,
      "çļĩ": 3385,
      "æķ¦": 3386,
      "èµ¢": 3387,
      "åĬ©æīĭ": 3388,
      "æ¡¥": 3389,
      "å²¸": 3390,
      "è¡¨æ¼Ķ": 3391,
      "è§Ħå¾ĭ": 3392,
      "æľĢé«ĺ": 3393,
      "æĸĩæ¡ĪçĶŁæĪĲ": 3394,
      "å®£ä¼ł": 3395,
      "çĻ¼": 3396,
      "é»ĳæ´ŀ": 3397,
      "ä»¥ä¸ĭæĺ¯ä¸Ģéģĵ": 3398,
      "æııè¿°äºĨ": 3399,
      "æĦıåĳ³": 3400,
      "åĴĮä¸Ģä¸ª": 3401,
      "æ¬²": 3402,
      "æĻ¨": 3403,
      "èĮĦ": 3404,
      "çļĦæİ¨": 3405,
      "åıĺå¾ĹæĽ´åĬł": 3406,
      "å°ıåŃ¦æķ°åŃ¦é¢ĺ": 3407,
      "å¾Ĺåĩº": 3408,
      "ä»Ĭå¹´": 3409,
      "æĸĩåĮĸåĴĮ": 3410,
      "ä»¥ä¸ĭæĺ¯ä¸Ģéģĵå°ıåŃ¦æķ°åŃ¦é¢ĺ": 3411,
      "åįĸ": 3412,
      "æµªæ¼«": 3413,
      "çĶŁæĪĲæĳĺè¦ģ": 3414,
      "èĢĮä¸įæĺ¯": 3415,
      "æ¶²": 3416,
      "çļĦæķ°éĩı": 3417,
      "çļĦæ¼": 3418,
      "ç»ĵè®º": 3419,
      "ä¸įè¶ħè¿ĩ": 3420,
      "ä¹Łå¾Ī": 3421,
      "åŃĹç¬¦": 3422,
      "çī¹èī²": 3423,
      "åĭķ": 3424,
      "æĬ«èĲ¨": 3425,
      "åĵ²": 3426,
      "åº¦åģĩ": 3427,
      "æĺĵæĩĤ": 3428,
      "æĺ¥å¤©": 3429,
      "çļĦè¿ĲåĬ¨": 3430,
      "ç´¯": 3431,
      "åħ¬åĽŃéĩĮ": 3432,
      "èĻ«": 3433,
      "åĲĪå¹¶": 3434,
      "ç¯®çĲĥ": 3435,
      "çļĦçĿ¡": 3436,
      "è¯·çĶ¨": 3437,
      "å½¼": 3438,
      "åĪĨä¸º": 3439,
      "ä¸ĭéĽ¨": 3440,
      "çķª": 3441,
      "æª": 3442,
      "éĤ£ä¸ª": 3443,
      "æĪ´": 3444,
      "å°Ĩå®ĥä»¬": 3445,
      "äºĶä¸ª": 3446,
      "æī¹": 3447,
      "æĻĤ": 3448,
      "æĪĲä¸Ģä¸ª": 3449,
      "å§Ķ": 3450,
      "çļĦæ¸¸": 3451,
      "æĤ²": 3452,
      "æĶ¾åľ¨": 3453,
      "éŃĶæ³ķ": 3454,
      "çļĦç³ĸ": 3455,
      "ä¸¾è¡Į": 3456,
      "çľĭåĪ°äºĨ": 3457,
      "çļĦç²": 3458,
      "æķı": 3459,
      "è¯Ŀé¢ĺ": 3460,
      "èĦı": 3461,
      "è¿Ľè¡Įæĳĺè¦ģ": 3462,
      "è´´": 3463,
      "å¥½çľĭ": 3464,
      "ä¾¿åĪ©": 3465,
      "çĽ¾": 3466,
      "å¹¶æ²¡æľī": 3467,
      "éĺ¶": 3468,
      "æĤł": 3469,
      "çļĦçŁ¥": 3470,
      "ç»Ĵ": 3471,
      "åı¯åĨįçĶŁèĥ½æºĲ": 3472,
      "è£Ļ": 3473,
      "èĬ±åĽŃ": 3474,
      "çŀ": 3475,
      "ç¡¬": 3476,
      "è¯·å¯¹": 3477,
      "ä¼łæĴŃ": 3478,
      "çļĦæĢ§": 3479,
      "æŁĶè½¯": 3480,
      "æł¹æį®è¾ĵåħ¥": 3481,
      "æĢ§èĥ½": 3482,
      "è¿ĺéľĢè¦ģ": 3483,
      "è´ŁéĿ¢å½±åĵį": 3484,
      "ä¸Ģé¡¹": 3485,
      "éĽĦ": 3486,
      "çļĦç¥": 3487,
      "ä¹±": 3488,
      "åĬŀåħ¬": 3489,
      "çº·": 3490,
      "å¸®æĪĳæĥ³": 3491,
      "ç»¼": 3492,
      "å°Ĩä¸ĭéĿ¢": 3493,
      "çļĦçĿ¡çľł": 3494,
      "çĸ«èĭĹ": 3495,
      "æ··åĲĪ": 3496,
      "çĤ¸": 3497,
      "å¼ºçĥĪ": 3498,
      "ï¼īãĢĤ": 3499,
      "çļĦæĻºèĥ½": 3500,
      "çĶļèĩ³": 3501,
      "æ¡£": 3502,
      "çľĭçľĭ": 3503,
      "åĬĽçļĦ": 3504,
      "åĵģå°Ŀ": 3505,
      "æĸĩæľ¬éĶĻè¯¯": 3506,
      "èĦ¸": 3507,
      "çĶ²": 3508,
      "é¢Ĩå¯¼": 3509,
      "åĵºä¹³åĬ¨çī©": 3510,
      "é¢Ħç®Ĺ": 3511,
      "æĪĺäºī": 3512,
      "èĳ±": 3513,
      "åĴĮæ²»çĸĹ": 3514,
      "çĶµåŃĲéĤ®ä»¶": 3515,
      "çļĦè®¾è®¡": 3516,
      "æĦıåĳ³çĿĢ": 3517,
      "ä½łè®¤ä¸º": 3518,
      "ç»ĦåĲĪ": 3519,
      "çļĦæ¸©": 3520,
      "çļĦæĦŁè§ī": 3521,
      "çªģçĦ¶": 3522,
      "æĺĵäºİçĲĨè§£": 3523,
      "çĶµè¯Ŀ": 3524,
      "ç»Ļå®ļçļĦæĸĩæľ¬": 3525,
      "æŁ¥æī¾": 3526,
      "è¿Ļé¡¹": 3527,
      "å¹³éĿ¢": 3528,
      "çļĦç½": 3529,
      "åĳĪçİ°": 3530,
      "æ¬§æ´²": 3531,
      "è¿Ļå®¶é¤Ĳåİħ": 3532,
      "æ¶µ": 3533,
      "åľ¨äºİ": 3534,
      "æĤ¬": 3535,
      "åı¯ä»¥è¢«": 3536,
      "ç¾İçļĦ": 3537,
      "åŁĥ": 3538,
      "ç¾Ĭ": 3539,
      "èī¯å¥½": 3540,
      "åīĤ": 3541,
      "è¸ª": 3542,
      "åī§æĥħ": 3543,
      "çĿĽ": 3544,
      "ä¸ŃçļĦåºĶçĶ¨": 3545,
      "æıĲåĩºäºĨ": 3546,
      "åŀĥåľ¾åĪĨç±»": 3547,
      "åıĬæĹ¶": 3548,
      "éļĶ": 3549,
      "å¤ĸå¥Ĺ": 3550,
      "çļĦç»ĵæŀľ": 3551,
      "ç§°ä¸º": 3552,
      "é¤Ĳé¦Ĩ": 3553,
      "å®¡": 3554,
      "æľĢåĸľæ¬¢çļĦ": 3555,
      "äºĴåĬ¨": 3556,
      "åºĶè¯¥æĺ¯": 3557,
      "äºĨä¸Ģç§į": 3558,
      "å§ĵ": 3559,
      "å¯¹äººç±»": 3560,
      "çļĦä¸Ģç§į": 3561,
      "æľĢå¤§": 3562,
      "åĨľä¸ļ": 3563,
      "çļĦä¸»æĹ¨": 3564,
      "è£ħé¥°": 3565,
      "æĹ¶åħī": 3566,
      "éĢĴ": 3567,
      "åį«çĶŁ": 3568,
      "é£ŁæĿĲ": 3569,
      "éĻ¤äºĨ": 3570,
      "å½±åĥı": 3571,
      "çĿ£": 3572,
      "åĬłä¸Ĭ": 3573,
      "éĢĥ": 3574,
      "âĢĿãĢĤ<|": 3575,
      "å°º": 3576,
      "å¤§æķ°æį®": 3577,
      "æĢİæł·": 3578,
      "çļĦä½¿çĶ¨": 3579,
      "çļĦçĥŃ": 3580,
      "æĽ´åĩĨç¡®": 3581,
      "å°Ĩä»¥ä¸ĭæĸĩæľ¬": 3582,
      "ä¸Ģåľº": 3583,
      "ä»¥ä¸ĭæ®µèĲ½": 3584,
      "åĴĮæĮĳæĪĺ": 3585,
      "çĶ¨çļĦ": 3586,
      "Ġå¥½çļĦ": 3587,
      "åİ¨": 3588,
      "ä½ľä¸ºä¸Ģä¸ª": 3589,
      "åľ¨æľªæĿ¥": 3590,
      "å¿§": 3591,
      "éļ¾ä»¥": 3592,
      "æĪĲä¸ºäºĨ": 3593,
      "æµªè´¹": 3594,
      "çĽ®çļĦ": 3595,
      "åįł": 3596,
      "æŃ¥éª¤": 3597,
      "ç´«": 3598,
      "äºĪ": 3599,
      "ĽåĽ´": 3600,
      "å°½åı¯èĥ½": 3601,
      "çļĦåĲ«ä¹ī": 3602,
      "åħħåĪĨ": 3603,
      "çļĦçİ¯å¢ĥ": 3604,
      "åĲĥäºĨ": 3605,
      "ä½Ĩä»ĸ": 3606,
      "å¦ĤæŃ¤": 3607,
      "çĽĴ": 3608,
      "æ¼Ĥäº®": 3609,
      "éģŃ": 3610,
      "çł´åĿı": 3611,
      "é¡ºåºı": 3612,
      "åº¦è¿ĩ": 3613,
      "åıĬåħ¶": 3614,
      "æľīæ²¡æľī": 3615,
      "åŃĲçļĦ": 3616,
      "èı²": 3617,
      "çı¾": 3618,
      "çļĦæĥ³æ³ķ": 3619,
      "å¤ļçļĦ": 3620,
      "èĤº": 3621,
      "ĽçĽ¾": 3622,
      "è®¡ç®Ĺæľºç§ĳåŃ¦": 3623,
      "åĴª": 3624,
      "ä¹Ķ": 3625,
      "ç£¨": 3626,
      "è¯¢éĹ®": 3627,
      "æĸĩä¸Ń": 3628,
      "ç§¯æŀģçļĦ": 3629,
      "èĩªä¸»": 3630,
      "æŀĿ": 3631,
      "æĭĽ": 3632,
      "éķ¿æľŁ": 3633,
      "ç§»åĬ¨": 3634,
      "ç¬¬ä¸ī": 3635,
      "çļĦä¸»è¦ģåĨħå®¹": 3636,
      "çĤ¹ç¬¦åı·": 3637,
      "æ½®æµģ": 3638,
      "æĦŁåħ´è¶£": 3639,
      "å®£å¸ĥ": 3640,
      "ç¦ģ": 3641,
      "åĶ¯": 3642,
      "çĪ¬": 3643,
      "æ»¡æĦı": 3644,
      "èĢģå¸Ī": 3645,
      "çĶ·å£«": 3646,
      "è¯Ńæ°Ķ": 3647,
      "å¾ĪæĬ±æŃī": 3648,
      "æĶ¯ä»ĺ": 3649,
      "ç»ĻæĪĳæİ¨èįĲ": 3650,
      "çī¹æ®Ĭ": 3651,
      "è®°å¿Ĩ": 3652,
      "æģĴ": 3653,
      "ç¤¾åĮº": 3654,
      "çī©ç§į": 3655,
      "è¿ĩåº¦": 3656,
      "åĪĺ": 3657,
      "è§Ħæ¨¡": 3658,
      "çļĦæİªæĸ½": 3659,
      "ãĢģâĢľ": 3660,
      "åŁºåĽł": 3661,
      "èİ·å¾ĹäºĨ": 3662,
      "åı¤è¯Ĺç»ŃåĨĻ": 3663,
      "çļĦç©º": 3664,
      "ä½ĨæĪĳ": 3665,
      "ç»ĻæĪĳä¸Ģä¸ª": 3666,
      "ä¼Ł": 3667,
      "çļĦçĹ": 3668,
      "è®¡ç®Ĺæľºè§Ĩè§ī": 3669,
      "æ¢ħ": 3670,
      "è§£åĨ³éĹ®é¢ĺ": 3671,
      "åı¯ä»¥æıĲé«ĺ": 3672,
      "åĪł": 3673,
      "ä¸ºä½ł": 3674,
      "æĻºæħ§": 3675,
      "åħħæ»¡äºĨ": 3676,
      "ï¼īï¼Į": 3677,
      "åı¯ä»¥è®©": 3678,
      "ĠæĪĳ": 3679,
      "åĮºåŁŁ": 3680,
      "è®¤è¯Ĩ": 3681,
      "æĻĴ": 3682,
      "åį±éĻ©": 3683,
      "æĺİæĺ¾": 3684,
      "ä¸ĢåĢĭ": 3685,
      "éĿ¢ç§¯": 3686,
      "åĴĮç¤¾ä¼ļ": 3687,
      "ç»´æĬ¤": 3688,
      "èįīèİĵ": 3689,
      "çº¹": 3690,
      "æĦīæĤ¦": 3691,
      "å¿ł": 3692,
      "éĩĮçļĦ": 3693,
      "Ġ3": 3694,
      "æ¸©å®¤æ°Ķä½ĵ": 3695,
      "éħĴåºĹ": 3696,
      "åį§": 3697,
      "å¹½": 3698,
      "æŃ§": 3699,
      "å®Ŀå®Ŀ": 3700,
      "åĪĨæŀĲåĴĮ": 3701,
      "æ£Ģæµĭ": 3702,
      "çĨĬçĮ«": 3703,
      "æ²ŁéĢļ": 3704,
      "çļĦè¯ĹæŃĮ": 3705,
      "å°±ä¸ļ": 3706,
      "æķ¬": 3707,
      "èľĤ": 3708,
      "ä¸Ģä»¶": 3709,
      "çĲ´": 3710,
      "æĭĮ": 3711,
      "æıĲéĨĴ": 3712,
      "äºĨä¸ĢäºĽ": 3713,
      "å±±å³°": 3714,
      "æī¬": 3715,
      "æİĴåºı": 3716,
      "æĶ¯éĵħç¬Ķ": 3717,
      "æŁ¥çľĭ": 3718,
      "èĭ±æĸĩ": 3719,
      "ä¼ĺåĬ¿": 3720,
      "å¤§çº¦": 3721,
      "å¢Ļ": 3722,
      "è¯¸": 3723,
      "äººåľ¨": 3724,
      "çĶŁéķ¿": 3725,
      "éľľ": 3726,
      "è¾ħåĬ©": 3727,
      "æĿ¥æºĲ": 3728,
      "è¯Ńåı¥": 3729,
      "ä¸»è¯Ń": 3730,
      "çłĶåıĳ": 3731,
      "Ġ2": 3732,
      "å¤ªéĺ³èĥ½": 3733,
      "çĶĺ": 3734,
      "æł¹æį®ä»¥ä¸ĭæĸĩæľ¬": 3735,
      "æĢķ": 3736,
      "èĦī": 3737,
      "é»Ħèī²": 3738,
      "11": 3739,
      "åĲ«æľī": 3740,
      "èĳ¡èĲ": 3741,
      "èĳ¡èĲĦ": 3742,
      "çļĦæ¬": 3743,
      "ĠĠ": 3744,
      "çĭĹçĭĹ": 3745,
      "åİŁçĲĨ": 3746,
      "è¿Ŀ": 3747,
      "åĽ¾åĥıè¯ĨåĪ«": 3748,
      "æ¨¡ä»¿": 3749,
      "åħĶ": 3750,
      "æīĵå¼Ģ": 3751,
      "é»ĳèī²": 3752,
      "èĢĥè¯ķ": 3753,
      "åĮĢ": 3754,
      "çŃīéĹ®é¢ĺ": 3755,
      "çļĦæĦıä¹ī": 3756,
      "å®ŀæĸ½": 3757,
      "èĢį": 3758,
      "ä¼¦æķ¦": 3759,
      "å¤ľæĻļ": 3760,
      "çī©çĲĨåŃ¦": 3761,
      "è¿Ļä¸¤ä¸ª": 3762,
      "éł": 3763,
      "çļĦçŁ¥è¯Ĩ": 3764,
      "çĽŁ": 3765,
      "ä¸ªæĢ§åĮĸ": 3766,
      "ç»Łè®¡": 3767,
      "çļĦæł¸": 3768,
      "åĲĪéĢĤçļĦ": 3769,
      "ä¸įçŁ¥éģĵ": 3770,
      "ï¼ļ\"": 3771,
      "ä¼¯": 3772,
      "æĸĩè¨Ģ": 3773,
      "ä½łè§īå¾Ĺ": 3774,
      "è§Ĥå¯Ł": 3775,
      "é£ŀè¡Į": 3776,
      "çļĦæ¼Ķ": 3777,
      "å¤©æ°Ķé¢ĦæĬ¥": 3778,
      "åıĺæĪĲ": 3779,
      "ä¸ŃæĢ§": 3780,
      "æĸĩè¨Ģæĸĩ": 3781,
      "éº¼": 3782,
      "ä¸Ńç«ĭ": 3783,
      "å®ŀæĹ¶": 3784,
      "èķ´": 3785,
      "èĻİ": 3786,
      "è¿Ľå±ķ": 3787,
      "çĶ·åŃ©": 3788,
      "ä¸Ĭæĸĩ": 3789,
      "èĤ´": 3790,
      "æĪĲå°±": 3791,
      "åľ¨å®¶éĩĮ": 3792,
      "æĻºèĥ½åĮĸ": 3793,
      "é¸£": 3794,
      "çĽ´åĪ°": 3795,
      "è¢«è®¤ä¸º": 3796,
      "å¸¸è§ģçļĦ": 3797,
      "è·¯ä¸Ĭ": 3798,
      "æĭ¼åĨĻéĶĻè¯¯": 3799,
      "æįķ": 3800,
      "çŁĽçĽ¾": 3801,
      "çļĦæ·": 3802,
      "çģŃ": 3803,
      "çĹĩçĬ¶": 3804,
      "æĥħåĨµä¸ĭ": 3805,
      "æĸĩæĺİ": 3806,
      "æľīæķĪåľ°": 3807,
      "åİŁæĸĩ": 3808,
      "çļĦæĮĩ": 3809,
      "¹é¥": 3810,
      "æµ·è¾¹": 3811,
      "éģĩåĪ°": 3812,
      "çļĦæıĲ": 3813,
      "æĳĩ": 3814,
      "ä¸ºä¸Ģä¸ª": 3815,
      "çĶŁç´ł": 3816,
      "åĪºæ¿Ģ": 3817,
      "å¯Ĩçłģ": 3818,
      "éŁµ": 3819,
      "åįģå¹´": 3820,
      "¹é¥ª": 3821,
      "âĢĿãĢģâĢľ": 3822,
      "åı¯ä»¥èĢĥèĻĳ": 3823,
      "åıĤè§Ĥ": 3824,
      "èĩªçĦ¶çģ¾å®³": 3825,
      "æĸ°åŀĭ": 3826,
      "æŃ£å¼ı": 3827,
      "åĽ¾ä¹¦": 3828,
      "å®¤åĨħ": 3829,
      "åĨĻçļĦ": 3830,
      "åĲ¬èµ·æĿ¥": 3831,
      "éĺµ": 3832,
      "éĢĤå½ĵçļĦ": 3833,
      "ä»Ļ": 3834,
      "å¼Ģå¤´": 3835,
      "è£ģ": 3836,
      "éĿŀå¸¸éĩįè¦ģ": 3837,
      "éĢ²": 3838,
      "çĳŀ": 3839,
      "åĩ¡": 3840,
      "ç»ĻæĪĳä¸ĢäºĽ": 3841,
      "è¦ģçĤ¹": 3842,
      "èıľåĵģ": 3843,
      "åľ¨è¿Ļ": 3844,
      "çļĦåħ·ä½ĵ": 3845,
      "åİ¿": 3846,
      "è®¿éĹ®": 3847,
      "èĤ¡ç¥¨": 3848,
      "æĳĨ": 3849,
      "çļĦä»»åĬ¡": 3850,
      "åħ¨éĿ¢": 3851,
      "25": 3852,
      "ç«¹": 3853,
      "çļĦæķĻ": 3854,
      "è¿Ľè¡ĮäºĨ": 3855,
      "æĶ¹ä¸º": 3856,
      "çļĦè¡Įä¸º": 3857,
      "åİŁåı¥": 3858,
      "è´¢åĬ¡": 3859,
      "æĪĲåĪĨ": 3860,
      "åĮ»éĻ¢": 3861,
      "ãĢĤ'": 3862,
      "æ¸ħæĸ°": 3863,
      "ä¿Ĺ": 3864,
      "åĵ²åŃ¦": 3865,
      "èİ±": 3866,
      "æµ·å¹³éĿ¢": 3867,
      "çļĦåģ¥åº·": 3868,
      "ç²Ĵ": 3869,
      "å¾Īå¤§": 3870,
      "èī¾": 3871,
      "èĥŀ": 3872,
      "è®¾ç½®": 3873,
      "åīª": 3874,
      "æĺ¯æĪĳ": 3875,
      "å¼±": 3876,
      "åı¯éĿł": 3877,
      "èĤ¯å®ļ": 3878,
      "è§Ĥçľĭ": 3879,
      "æŀģç«¯": 3880,
      "æ¶Īè´¹èĢħ": 3881,
      "åĨ³äºİ": 3882,
      "æĽ¼": 3883,
      "åħ¬éĩĮ": 3884,
      "æīĢéľĢ": 3885,
      "çļĦçĭĹ": 3886,
      "èĥ¡": 3887,
      "æĪĳä»¬å°Ĩ": 3888,
      "åıĳæĺİ": 3889,
      "åıĸåĨ³äºİ": 3890,
      "çļĦç¨": 3891,
      "åĸľæ¬¢åĲĥ": 3892,
      "åĩºè¡Į": 3893,
      "AIæĬĢæľ¯": 3894,
      "è¡¬": 3895,
      "çĩķ": 3896,
      "é£ŁçĶ¨": 3897,
      "çİ©èĢį": 3898,
      "çİ°åľ¨è¯·ä½ł": 3899,
      "èµĸ": 3900,
      "æł¹æį®æłĩé¢ĺ": 3901,
      "åĵĪåĪ©": 3902,
      "è¦Ĩ": 3903,
      "ç¼ºä¹ı": 3904,
      "éĿŀå¸¸æĦŁè°¢": 3905,
      "åĢ¼å¾Ĺä¸Ģ": 3906,
      "å¤®": 3907,
      "çĬ¹": 3908,
      "ç¤¼çī©": 3909,
      "åħļ": 3910,
      "ä»ĸäºº": 3911,
      "å°½åĬĽ": 3912,
      "å°±åı¯ä»¥": 3913,
      "çİ©åħ·": 3914,
      "çļĦæ²»": 3915,
      "ä¸ĭéĻį": 3916,
      "é²ģ": 3917,
      "æĭľ": 3918,
      "ä¸Ģåı¥": 3919,
      "å·¥èīº": 3920,
      "å¸¸å¸¸": 3921,
      "åıįä¹īè¯į": 3922,
      "å¤§å°ı": 3923,
      "ä¹ĭå¤ĸ": 3924,
      "ä¸Ģä¸ĭè¿Ļç¯ĩæĸĩç«ł": 3925,
      "çļĦç¾İé£Ł": 3926,
      "è®¾æĸ½": 3927,
      "æĪĳå°Ĩ": 3928,
      "æĭĶ": 3929,
      "å°ıæĺİåĴĮ": 3930,
      "æĲº": 3931,
      "çķªèĮĦ": 3932,
      "AIè¯Ńè¨Ģæ¨¡åŀĭ": 3933,
      "è§Ĵåº¦": 3934,
      "æĿ¥è§£åĨ³": 3935,
      "è½¬æį¢ä¸º": 3936,
      "åħ´å¥ĭ": 3937,
      "è´¦": 3938,
      "éĢĬ": 3939,
      "çĶµå½±çļĦ": 3940,
      "éĩįå¤§": 3941,
      "éĺ²æŃ¢": 3942,
      "å¦Ĥæŀľä½łæĥ³": 3943,
      "è¿Ł": 3944,
      "ç»ĻäºĨ": 3945,
      "éĨī": 3946,
      "å°ıçĮ«": 3947,
      "èĤĸ": 3948,
      "æľĢå¤§çļĦ": 3949,
      "è¿ħéĢŁ": 3950,
      "ä¸įåŃĺåľ¨": 3951,
      "éĥ¨éĹ¨": 3952,
      "å¾Īæľī": 3953,
      "åĴĮåºĶçĶ¨": 3954,
      "åħįçĸ«": 3955,
      "æ¥ļ": 3956,
      "äººåı£": 3957,
      "è·¨": 3958,
      "ä½ľå®¶": 3959,
      "ħåĬĽ": 3960,
      "åħ³éĶ®åŃĹ": 3961,
      "çŃīå¾ħ": 3962,
      "çļĦç²¾": 3963,
      "éģĩåĪ°äºĨ": 3964,
      "ä»Ģéº¼": 3965,
      "ä¸ĵæ³¨": 3966,
      "ä¼ĺçĤ¹": 3967,
      "çļĦéľĢæ±Ĥ": 3968,
      "16": 3969,
      "äºĨå¾Īå¤ļ": 3970,
      "åĪĨæĪĲ": 3971,
      "æĶ¹æŃ£": 3972,
      "æĪĳä»¬çļĦçĶŁæ´»": 3973,
      "ä»°": 3974,
      "æĪĳæĺ¨å¤©": 3975,
      "èĮĥåĽ´åĨħ": 3976,
      "æĺ¯åħ³äºİ": 3977,
      "ï¼ļ'": 3978,
      "çļĦå®īåħ¨": 3979,
      "åħħè¶³": 3980,
      "å¹¿æ³ĽåºĶçĶ¨": 3981,
      "èĬ³": 3982,
      "ä¸Ńæľī": 3983,
      "ä¸»è§Ĵ": 3984,
      "éĩįè§Ĩ": 3985,
      "æĪĳæİ¨èįĲ": 3986,
      "èį·": 3987,
      "åı¯ä»¥éĢīæĭ©": 3988,
      "æĸĩç«łä¸ŃæıĲåĪ°": 3989,
      "ä¿®æŃ£": 3990,
      "ç»ŃåĨĻåı¤è¯Ĺ": 3991,
      "çļĦæł¸å¿ĥ": 3992,
      "ç´§å¼ł": 3993,
      "åĪłéĻ¤": 3994,
      "ç¼ĸåĨĻä¸Ģä¸ª": 3995,
      "èĩªèº«": 3996,
      "åĴĮåıĳå±ķ": 3997,
      "åĪĨéħį": 3998,
      "åį°åº¦": 3999,
      "ãĢĤ\"<|": 4000,
      "èµ¢å¾Ĺ": 4001,
      "hon": 4002,
      "çļĦæ¦Ĥå¿µ": 4003,
      "æ¡ĥ": 4004,
      "ä¸Ģå¼ł": 4005,
      "åŃ¦ä¼ļ": 4006,
      "å¢¨": 4007,
      "å½¢è±¡": 4008,
      "è§Ħå®ļ": 4009,
      "çļĦç¤¾ä¼ļ": 4010,
      "è±ª": 4011,
      "çķĻä¸ĭ": 4012,
      "åŃĲåĴĮ": 4013,
      "æĮĤ": 4014,
      "åĪĹä¸¾": 4015,
      "è¯Ńæ³ķåĴĮ": 4016,
      "éĺĶ": 4017,
      "äººå·¥æĻºèĥ½çļĦåºĶçĶ¨": 4018,
      "å¼Ł": 4019,
      "åİŁå§ĭæĸĩæľ¬": 4020,
      "åĨħå¿ĥ": 4021,
      "éĩĮéĿ¢": 4022,
      "å¯Ĥ": 4023,
      "èĴ¸": 4024,
      "å°ĺ": 4025,
      "ç¦»å¼Ģ": 4026,
      "æĸ°éĹ»æĸĩç«ł": 4027,
      "å¼Ģå¿ĥ": 4028,
      "æŃ»äº¡": 4029,
      "æ¯Ķåĸ»": 4030,
      "åı¦ä¸Ģä¸ª": 4031,
      "çļĦæ¶": 4032,
      "ä¾µ": 4033,
      "è¿Ļæĺ¯ä¸Ģç¯ĩ": 4034,
      "çŃĶæ¡Īæĺ¯": 4035,
      "ä¹ĭå¤Ħ": 4036,
      "åħ·å¤ĩ": 4037,
      "çļĦç½ĳ": 4038,
      "æĸ¹éĿ¢çļĦ": 4039,
      "æİĴåĪĹ": 4040,
      "æıĲç¤º": 4041,
      "çļĦçĸ": 4042,
      "æĭĤ": 4043,
      "çģ°": 4044,
      "çĮİ": 4045,
      "èĬĿ": 4046,
      "è½¬åĮĸ": 4047,
      "çļĦçľĭ": 4048,
      "åı¤èĢģ": 4049,
      "æĽ´å¿«": 4050,
      "è¿ĳå¹´æĿ¥": 4051,
      "çļĦç³ĸæŀľ": 4052,
      "ç©Ĩ": 4053,
      "æĳ©": 4054,
      "æĶ¶éĽĨ": 4055,
      "åĿĢ": 4056,
      "æĺ¯å¤ļå°ĳ": 4057,
      "å¾Ĵ": 4058,
      "æľĢæĸ°çļĦ": 4059,
      "èħĲ": 4060,
      "æī®": 4061,
      "çļĦæŀ": 4062,
      "çīĪæľ¬": 4063,
      "æĿĲè´¨": 4064,
      "åķĨåĬ¡": 4065,
      "æĶ¾åħ¥": 4066,
      "é¦Ī": 4067,
      "çĸĳéĹ®": 4068,
      "è¯·ä»İ": 4069,
      "åı¯ä»¥å°Ŀè¯ķ": 4070,
      "å¥½å¤Ħ": 4071,
      "ä¸ģ": 4072,
      "äººå·¥æĻºèĥ½çļĦåıĳå±ķ": 4073,
      "è¯¥æĸĩæľ¬": 4074,
      "æĽ¾ç»ı": 4075,
      "æ¶īåıĬåĪ°": 4076,
      "è²Į": 4077,
      "æ·±åĳ¼åĲ¸": 4078,
      "çĶµæ±ł": 4079,
      "æľīä¸ĢäºĽ": 4080,
      "å®ŀçĶ¨": 4081,
      "æľīçĤ¹": 4082,
      "çº½çº¦å¸Ĥ": 4083,
      "ä¸²": 4084,
      "æł¹æį®ç»Ļå®ļ": 4085,
      "æĺ¯éĿŀå¸¸": 4086,
      "å½±çīĩ": 4087,
      "åĵªç§į": 4088,
      "GPTæ¨¡åŀĭ": 4089,
      "ä¸¦": 4090,
      "æĥħæĦŁåĪĨæŀĲ": 4091,
      "éĶĻåĪ«": 4092,
      "åıĹæ¬¢è¿İçļĦ": 4093,
      "ä»Ĭå¤©å¤©æ°Ķ": 4094,
      "é¡µ": 4095,
      "åľ°ä¸Ĭ": 4096,
      "æĽ¿ä»£": 4097,
      "ä¸Ģå¹´": 4098,
      "éĶĻåĪ«åŃĹ": 4099,
      "åĲįä¸º": 4100,
      "äº§ä¸ļ": 4101,
      "å½Ĵç±»": 4102,
      "æĴ°": 4103,
      "è¿Ļæ®µæĸĩåŃĹ": 4104,
      "çº¤": 4105,
      "æľªçŁ¥": 4106,
      "å¿½": 4107,
      "ä¸ªæ©ĻåŃĲ": 4108,
      "å·¨å¤§çļĦ": 4109,
      "çļĦé¢ľèī²": 4110,
      "æĹłéĻĲ": 4111,
      "æĦŁåĪ°éĿŀå¸¸": 4112,
      "å¸½": 4113,
      "å°ıæĺİå®¶": 4114,
      "äººå·¥æĻºèĥ½åľ¨åĮ»çĸĹé¢ĨåŁŁ": 4115,
      "ç¼ºçĤ¹": 4116,
      "æľīçļĦ": 4117,
      "ç¿»è¯ĳæĪĲæĸĩè¨Ģæĸĩ": 4118,
      "è®²è¿°äºĨä¸Ģä¸ª": 4119,
      "æĹ¶åĪ»": 4120,
      "ç¿»è¯ĳæĪĲçİ°ä»£": 4121,
      "åĪļåĪļ": 4122,
      "åķĨåºĹ": 4123,
      "è¿ĶåĽŀ": 4124,
      "æ·ĩ": 4125,
      "ç¨®": 4126,
      "å¾ªçİ¯": 4127,
      "åĬĽåŃ¦": 4128,
      "åĩ½": 4129,
      "è·¯çº¿": 4130,
      "åªļ": 4131,
      "å¦ĩ": 4132,
      "èģļä¼ļ": 4133,
      "åŁİå¸ĤçļĦ": 4134,
      "é¬": 4135,
      "èĮ¨": 4136,
      "åĴĮå¹³": 4137,
      "ç¿»è¯ĳæĪĲçİ°ä»£æĸĩ": 4138,
      "ä¸°å¯ĮçļĦ": 4139,
      "çłĶç©¶è¡¨æĺİ": 4140,
      "å±ħæ°ĳ": 4141,
      "çİ¯ä¿ĿæĦıè¯Ĩ": 4142,
      "åį³ä½¿": 4143,
      "æ¸¸å®¢": 4144,
      "ç»´çĶŁç´ł": 4145,
      "åİ»å¹´": 4146,
      "ä¸ŃæıĲåıĸåĩº": 4147,
      "æĥ³æ³ķ": 4148,
      "çŁ¿": 4149,
      "æĹłäºº": 4150,
      "æ²¿": 4151,
      "æİĪ": 4152,
      "åĭĴ": 4153,
      "åĴĮæľĭåıĭ": 4154,
      "é¸Ń": 4155,
      "æıĲä¾ĽçļĦ": 4156,
      "ç¬¬ä¸Ģä¸ª": 4157,
      "æ³ķè§Ħ": 4158,
      "å½¢çĬ¶": 4159,
      "å¿ĥèĦı": 4160,
      "è½¦è¾Ĩ": 4161,
      "ç¨İ": 4162,
      "é£Łè°±": 4163,
      "æııè¿°ä¸Ģä¸ĭ": 4164,
      "ä»ĭç»įä¸Ģä¸ĭ": 4165,
      "çļĦæ²»çĸĹ": 4166,
      "çĽĳçĿ£": 4167,
      "åľ¨ä¸ŃåĽ½": 4168,
      "åĲĦåľ°": 4169,
      "çļĦçľĭæ³ķ": 4170,
      "å±ı": 4171,
      "åĨ°æ·ĩ": 4172,
      "ä½łå¥½": 4173,
      "æĥ³è±¡": 4174,
      "æĸĩæľ¬çºłéĶĻ": 4175,
      "å¯¹æĸĩæľ¬éĶĻè¯¯": 4176,
      "å¯¹æĸĩæľ¬éĶĻè¯¯è¿Ľè¡Į": 4177,
      "åĨ°æ·ĩæ·ĭ": 4178,
      "çļĦçĶŁæ´»æĸ¹å¼ı": 4179,
      "æľīçĽĬ": 4180,
      "ä¸ªæľĭåıĭ": 4181,
      "ä¼¼ä¹İ": 4182,
      "åı¯ä»¥çĶ¨": 4183,
      "èĢĢ": 4184,
      "å¯¼æ¼Ķ": 4185,
      "çĭĤ": 4186,
      "åĪĻæĺ¯": 4187,
      "14": 4188,
      "æ½ľåľ¨": 4189,
      "åıĤèĢĥ": 4190,
      "å¤§èĦĳ": 4191,
      "æľŁå¾ħ": 4192,
      "ç»Ĩèĥŀ": 4193,
      "èĬĤæĹ¥": 4194,
      "çļĦå¤©æ°Ķé¢ĦæĬ¥": 4195,
      "å¤ļæķ°": 4196,
      "æłĩçŃ¾": 4197,
      "æī°": 4198,
      "äººä½ĵ": 4199,
      "èĴĤ": 4200,
      "éĽĨä¸Ń": 4201,
      "çļĦæ¸¸æĪı": 4202,
      "ç»ĵæĿŁ": 4203,
      "è¯ĦåĪĨ": 4204,
      "ä¸ºä»¥ä¸ĭ": 4205,
      "èıľèĤ´": 4206,
      "äººå£«": 4207,
      "è¯»ä¹¦": 4208,
      "çļĦåĬ¨çī©": 4209,
      "æ²Ļæĭī": 4210,
      "ä¼łè¾¾": 4211,
      "éĢĹ": 4212,
      "æ¨¡æĭŁäººç±»": 4213,
      "å¾Īå¥½çļĦ": 4214,
      "å§¿": 4215,
      "é¢ĨåŁŁçļĦ": 4216,
      "åĪĨå¸ĥ": 4217,
      "èĤĮèĤī": 4218,
      "17": 4219,
      "æĢª": 4220,
      "çļĦçĮ": 4221,
      "çĶŁæĪĲä¸Ģé¦ĸ": 4222,
      "æĪ·å¤ĸæ´»åĬ¨": 4223,
      "è´¸": 4224,
      "æĻ´æľĹ": 4225,
      "æĭĵ": 4226,
      "åħ¶ä¸ŃåĮħæĭ¬": 4227,
      "æĽ¿æį¢ä¸º": 4228,
      "ä¸įè¶³": 4229,
      "æİĺ": 4230,
      "ç¢İ": 4231,
      "å°¼åħĭ": 4232,
      "000": 4233,
      "åŃĺåĤ¨": 4234,
      "äººä»¬çļĦ": 4235,
      "åĸľçĪ±": 4236,
      "å¿ĥçĲĨåģ¥åº·": 4237,
      "çļĦæĶ¯": 4238,
      "åŃĲéĩĮ": 4239,
      "å°½éĩı": 4240,
      "éģİ": 4241,
      "çļĦæĢ»ç»ĵ": 4242,
      "ä¸ľäº¬": 4243,
      "åĮ¹": 4244,
      "æ³Ĭ": 4245,
      "èħ»": 4246,
      "æŀĦå»º": 4247,
      "èıľåįķ": 4248,
      "å®½æĿ¾": 4249,
      "çĽĳæµĭ": 4250,
      "éĺ»": 4251,
      "äº§çĶŁäºĨ": 4252,
      "éĩİçĶŁ": 4253,
      "åĴĮå®īåħ¨": 4254,
      "è®¤çŁ¥": 4255,
      "å²©": 4256,
      "çĶ·åŃĲ": 4257,
      "åıįé¦Ī": 4258,
      "XX": 4259,
      "å½ĵä½ł": 4260,
      "åıĳå±ķçļĦ": 4261,
      "ä»¥æĿ¥": 4262,
      "åīįæıĲ": 4263,
      "æĽ´ä¸º": 4264,
      "æł·çļĦ": 4265,
      "æĸ°æ¬¾": 4266,
      "æĸ°äº§åĵģ": 4267,
      "ä¸¹": 4268,
      "æľĢéĩįè¦ģ": 4269,
      "åıĸä»£": 4270,
      "å¤ıæĹ¥": 4271,
      "æĶ»åĩ»": 4272,
      "å¸Ń": 4273,
      "çļĦæ¢": 4274,
      "é½Ĳ": 4275,
      "éĥ½åı¯ä»¥": 4276,
      "æĺ¯ä»Ģä¹ĪæĦıæĢĿ": 4277,
      "èį¡": 4278,
      "ãĢĤâĢľ": 4279,
      "çļĦæĥħç»ª": 4280,
      "å¼ķåıĳ": 4281,
      "in": 4282,
      "èĩªä¿¡": 4283,
      "ä¿Ŀæļĸ": 4284,
      "æĵİ": 4285,
      "éķ¿çļĦ": 4286,
      "æľīæķĪçļĦ": 4287,
      "æµ·å¹³éĿ¢ä¸Ĭåįĩ": 4288,
      "ä¹ŁéľĢè¦ģ": 4289,
      "çļĦæĳĦ": 4290,
      "åİĺ": 4291,
      "è·ĥ": 4292,
      "åĢį": 4293,
      "å·®å¼Ĥ": 4294,
      "å½¼æŃ¤": 4295,
      "æ³¢çī¹": 4296,
      "çļĦæĬĢèĥ½": 4297,
      "çīĽä»Ķ": 4298,
      "å®ŀä½ĵè¯ĨåĪ«": 4299,
      "æī£": 4300,
      "åŃ¦ä¹łç¼ĸç¨ĭ": 4301,
      "éķ¿æĹ¶éĹ´": 4302,
      "æľīä¸Ģ": 4303,
      "èĥ½ä¸įèĥ½": 4304,
      "äº¦": 4305,
      "å°±åĥı": 4306,
      "è´§å¸ģ": 4307,
      "åĽ¾ä¹¦é¦Ĩ": 4308,
      "èĪĩ": 4309,
      "è®¸å¤ļäºº": 4310,
      "çļĦçī¹çĤ¹": 4311,
      "çľŁå®ŀ": 4312,
      "åĪĨåŃĲ": 4313,
      "è¿ĺæľīåħ¶ä»ĸ": 4314,
      "èĴĻ": 4315,
      "çļĦæĽ": 4316,
      "å¤§éĩıçļĦ": 4317,
      "åľĪ": 4318,
      "åı£è¯Ń": 4319,
      "çļĦä¸ĢäºĽ": 4320,
      "å¤¹": 4321,
      "çļĦåŁºæľ¬": 4322,
      "13": 4323,
      "èķ´åĲ«": 4324,
      "è¾ŀ": 4325,
      "é¸¡èĤī": 4326,
      "æĺ¯æľĢ": 4327,
      "æĪĳä»Ĭå¤©": 4328,
      "å°ıé¸Ł": 4329,
      "çĽĳç®¡": 4330,
      "æ´ª": 4331,
      "ä¿ĿæĮģåģ¥åº·": 4332,
      "ä¿®èº«": 4333,
      "åģıå¥½": 4334,
      "äºĭæķħ": 4335,
      "æł¹æį®èĩªå·±çļĦ": 4336,
      "éĢıæ°Ķ": 4337,
      "è¯ķè¯ķ": 4338,
      "åºĨç¥Ŀ": 4339,
      "æģĭ": 4340,
      "ä¹Į": 4341,
      "ä½¿åħ¶æĽ´åĬłç®Ģæ´ģæĺİäºĨ": 4342,
      "å¹¿æ³ĽåºĶçĶ¨äºİ": 4343,
      "åıĸå¾ĹäºĨ": 4344,
      "ä½łä¼ļ": 4345,
      "ä¼¦çĲĨ": 4346,
      "ãĢį": 4347,
      "ç§Ł": 4348,
      "ãĢĮ": 4349,
      "åıªèĥ½": 4350,
      "æĺ¯äººç±»": 4351,
      "æĸĩç«łåĨħå®¹": 4352,
      "ä¸Ģæ®µæĸĩåŃĹ": 4353,
      "é£ŀæľº": 4354,
      "çĭ®": 4355,
      "çļĦä¹¦": 4356,
      "æĪĲç»©": 4357,
      "é¢Ħè®¡": 4358,
      "æĪĳä¸įèĥ½": 4359,
      "è°Ĭ": 4360,
      "æĺ¯ä¸ĢåĲį": 4361,
      "åĪĢ": 4362,
      "çĥ¹é¥ª": 4363,
      "è°ĥåĳ³": 4364,
      "å¼ķæĵİ": 4365,
      "ä¸ĵå®¶": 4366,
      "åĨħéĥ¨": 4367,
      "éĹ®é¢ĺçļĦ": 4368,
      "ä¸įåŃĺåľ¨å®ŀä½ĵ": 4369,
      "çĥŃéĹ¨": 4370,
      "ä¿Ŀéļľ": 4371,
      "äººå¿ĥ": 4372,
      "äº¤äºĴ": 4373,
      "çļĦçĪ±æĥħ": 4374,
      "éĩĩåıĸæİªæĸ½": 4375,
      "éĻ¶": 4376,
      "é²¸": 4377,
      "ä»ª": 4378,
      "24": 4379,
      "å¤ļæł·æĢ§": 4380,
      "åºĦ": 4381,
      "å±ķå¼Ģ": 4382,
      "2021": 4383,
      "å¥¥è¿Ĳ": 4384,
      "å®¿": 4385,
      "åĿĩåĮĢ": 4386,
      "çļĦæ½": 4387,
      "ç®ĢåĮĸ": 4388,
      "èº«ä»½": 4389,
      "çļĦä¸ĸçķĮ": 4390,
      "åĭĩæķ¢": 4391,
      "ä¹°äºĨä¸Ģ": 4392,
      "æĮĳ": 4393,
      "æ®ĭ": 4394,
      "æĺ¨æĻļ": 4395,
      "èģĶåĲĪ": 4396,
      "åħĭæľį": 4397,
      "åĨįæ¬¡": 4398,
      "çļĦæİĴ": 4399,
      "æİ¢éĻ©": 4400,
      "æĥľ": 4401,
      "è¡¨æł¼": 4402,
      "è¯·å¸®æĪĳ": 4403,
      "åĲİçļĦåı¥åŃĲ": 4404,
      "èİİ": 4405,
      "çĮ«åĴª": 4406,
      "ä¸§": 4407,
      "çĻ½èī²": 4408,
      "è¯·ä¸ºæĪĳ": 4409,
      "çļĦåħ³éĶ®ä¿¡æģ¯": 4410,
      "ç¾½": 4411,
      "æĹħæ¸¸æĻ¯çĤ¹": 4412,
      "çļĦç¼ĸ": 4413,
      "çļĦé¦ĸ": 4414,
      "éĻ·": 4415,
      "æĺİåªļ": 4416,
      "èĻļæĭŁçİ°å®ŀ": 4417,
      "çļĦæģ": 4418,
      "çģµæĦŁ": 4419,
      "äºĮæ°§åĮĸ": 4420,
      "å¸ħ": 4421,
      "é¦Ļæ¸¯": 4422,
      "å¤§åŀĭ": 4423,
      "çļĦåŁºç¡Ģ": 4424,
      "æĺ¯ä¸ª": 4425,
      "èıĮ": 4426,
      "åĨĻè¯Ĺ": 4427,
      "æª¬": 4428,
      "å¾·åĽ½": 4429,
      "è®¯": 4430,
      "å¥Ķ": 4431,
      "æĽ´å®¹æĺĵ": 4432,
      "æŁľ": 4433,
      "ç¢³æİĴæĶ¾": 4434,
      "æ¤ħ": 4435,
      "æĪĳéĿŀå¸¸": 4436,
      "çĲĨè§£åĴĮ": 4437,
      "æĸ°éĹ»æłĩé¢ĺ": 4438,
      "åŁ¹åħ»": 4439,
      "è¯ĨåĪ«åĩº": 4440,
      "ä½łä»¬": 4441,
      "æĽ´æŃ£": 4442,
      "è¯¥åħ¬åı¸": 4443,
      "åĭ¤": 4444,
      "å¹¶è¾ĵåĩº": 4445,
      "èĤł": 4446,
      "łæª¬": 4447,
      "çļĦæŁ": 4448,
      "ç§ĭåŃ£": 4449,
      "åľ¨è¿ĩåİ»": 4450,
      "æĬĵ": 4451,
      "é«Ķ": 4452,
      "åıĭå¥½": 4453,
      "æĲħ": 4454,
      "æĶ¶åħ¥": 4455,
      "éĸĵ": 4456,
      "æ¦Ĥè¿°": 4457,
      "æĪĲåĳĺ": 4458,
      "æ·±è¿ľ": 4459,
      "åĭĩæ°Ķ": 4460,
      "é¢Ħè®¢": 4461,
      "åĴĮæ°´": 4462,
      "ä½łæľīä»Ģä¹Ī": 4463,
      "åį°è±¡": 4464,
      "çļĦæľįåĬ¡": 4465,
      "æī®æ¼Ķ": 4466,
      "å°ıåįİ": 4467,
      "æĮĩå¯¼": 4468,
      "æ¶µçĽĸ": 4469,
      "åİĤ": 4470,
      "ç»¼åĲĪ": 4471,
      "çļĦä¸Ģéĥ¨åĪĨ": 4472,
      "æĳĦæ°ı": 4473,
      "ä¸Ģçīĩ": 4474,
      "æĬĢæľ¯åĴĮ": 4475,
      "å¹¿æ³ĽçļĦåºĶçĶ¨": 4476,
      "éŁ©çīĪ": 4477,
      "æŃ§è§Ĩ": 4478,
      "é£İåĲ¹": 4479,
      "æķĪçİĩåĴĮ": 4480,
      "å¤©çĦ¶": 4481,
      "çļĦæ¨": 4482,
      "ç½ĳä¸Ĭ": 4483,
      "å¦¹": 4484,
      "æ¯ĶèµĽä¸Ń": 4485,
      "åĽŀå¿Ĩ": 4486,
      "åĽłä¸ºå®ĥä»¬": 4487,
      "ç»´æĮģ": 4488,
      "æ³ī": 4489,
      "æīĭæ®µ": 4490,
      "çļĦåıĺåĮĸ": 4491,
      "çĽ¸åħ³ä¿¡æģ¯": 4492,
      "äº¤éĢļå·¥åħ·": 4493,
      "è¶³å¤ŁçļĦ": 4494,
      "å¤ªç©ºæİ¢ç´¢": 4495,
      "ç¼ĸè¾ĳä¸ĭéĿ¢": 4496,
      "å¹´ä»£": 4497,
      "çļĦäº§åĵģ": 4498,
      "éĩİé¤Ĳ": 4499,
      "å¹¶å°Ĩåħ¶": 4500,
      "å¯¿åĳ½": 4501,
      "æ°¸è¿ľ": 4502,
      "å®Įç¾İ": 4503,
      "ç®ĢçŁŃçļĦ": 4504,
      "çĶŁæĪĲä¸Ģæ®µ": 4505,
      "æıŃ": 4506,
      "ä¸įéľĢè¦ģ": 4507,
      "å®ļåĪ¶": 4508,
      "ä¸Ĭæľī": 4509,
      "å£ģ": 4510,
      "è½»è½»": 4511,
      "æĸ¯åĿ¦": 4512,
      "åĩºéĹ¨": 4513,
      "å¯¹æĸ¹": 4514,
      "éĢĹåı·": 4515,
      "è¯·æł¹æį®": 4516,
      "æĢĸ": 4517,
      "ç®Ģä»ĭ": 4518,
      "ä¸¤ç§į": 4519,
      "çļĦåĲįåŃĹ": 4520,
      "åħ¨åĽ½": 4521,
      "åĽ½åĨħ": 4522,
      "è´¯": 4523,
      "çļĦæĥħåĨµä¸ĭ": 4524,
      "æīĵéĢł": 4525,
      "å¦Ĥä½ķåľ¨": 4526,
      "ç»ĻæĤ¨": 4527,
      "æĢİä¹Īæł·": 4528,
      "äººå·¥æĻºèĥ½åı¯ä»¥": 4529,
      "è¯¥æĸĩç«ł": 4530,
      "çļĦçĻ": 4531,
      "èĩ³åħ³": 4532,
      "è¡ĵ": 4533,
      "æĽ°": 4534,
      "æııç»ĺ": 4535,
      "ä¸¾åĬŀ": 4536,
      "æ³½": 4537,
      "è¿«": 4538,
      "æĩī": 4539,
      "å¹¶ç»Ļåĩº": 4540,
      "åĽŀçŃĶè¿Ļä¸ªéĹ®é¢ĺ": 4541,
      "éļıæľº": 4542,
      "çİ©å®¶": 4543,
      "çİĽä¸½": 4544,
      "ä½łå¯¹": 4545,
      "æĪĳåİ»": 4546,
      "éĥ½åľ¨": 4547,
      "åģļå¥½": 4548,
      "èĬĴ": 4549,
      "ä¼Ļ": 4550,
      "æľºåĻ¨åŃ¦ä¹łç®Ĺæ³ķ": 4551,
      "èĺ": 4552,
      "è¿ĲçĶ¨": 4553,
      "éĹľ": 4554,
      "éĸĭ": 4555,
      "æĽ´æľī": 4556,
      "åŃ¦ç§ĳ": 4557,
      "çļ®èĤ¤": 4558,
      "å¤ķ": 4559,
      "èĿ¶": 4560,
      "çļĦè¿ĩç¨ĭ": 4561,
      "äºĭä¸ļ": 4562,
      "åĸľåī§": 4563,
      "å°±ä¼ļ": 4564,
      "æĻºèĥ½æīĭæľº": 4565,
      "èĬ¬": 4566,
      "çīĽèĤī": 4567,
      "çģµæ´»": 4568,
      "è¼": 4569,
      "æĪĳåĢĳ": 4570,
      "æ¸ħåįķ": 4571,
      "æĦģ": 4572,
      "å¦Īå¦Ī": 4573,
      "çļĦå¥½å¤Ħ": 4574,
      "åį«æĺŁ": 4575,
      "æĺİçĻ½": 4576,
      "å¼Ĺ": 4577,
      "ä¸Ńå¤®": 4578,
      "ä¿ĿçķĻ": 4579,
      "âĦ": 4580,
      "è°Ĳ": 4581,
      "æİ¨èįĲä¸ĢäºĽ": 4582,
      "æĿ¥å®ŀçİ°": 4583,
      "åľ°åĽ¾": 4584,
      "èĥľåĪ©": 4585,
      "ä¸Ģç³»åĪĹ": 4586,
      "å¯¸": 4587,
      "èµİ": 4588,
      "åĩ½æķ°": 4589,
      "\"ï¼Į": 4590,
      "éĻª": 4591,
      "å®ģéĿĻ": 4592,
      "çļĦæ³ķ": 4593,
      "Ġæııè¿°": 4594,
      "ä»ģ": 4595,
      "er": 4596,
      "å°ĳå¹´": 4597,
      "å°¿": 4598,
      "âĦĥ": 4599,
      "ç¶ĵ": 4600,
      "çİ¯ä¿ĿçļĦ": 4601,
      "æĴŀ": 4602,
      "åľ°åĲį": 4603,
      "è¿Ļæ¬¡": 4604,
      "60": 4605,
      "è«": 4606,
      "å½ĵåľ°çļĦ": 4607,
      "åıĸæ¶Ī": 4608,
      "ä¸įå¤ª": 4609,
      "æĹ¥å¸¸çĶŁæ´»": 4610,
      "æ³°åĿ¦": 4611,
      "æĦŁæŁĵ": 4612,
      "çĽĹ": 4613,
      "90": 4614,
      "è¿Ļåıª": 4615,
      "çŁ¥åĲį": 4616,
      "èµĭ": 4617,
      "è¿Ļæ®µè¯Ŀ": 4618,
      "åŃĶ": 4619,
      "è°ľ": 4620,
      "æĲħæĭĮ": 4621,
      "åľ¨æŃ¤": 4622,
      "éĺĲ": 4623,
      "è¯ķåĽ¾": 4624,
      "æľºåĻ¨ç¿»è¯ĳ": 4625,
      "æĪĸåħ¶ä»ĸ": 4626,
      "ç§įæĹı": 4627,
      "æľĢè¿ĳçļĦ": 4628,
      "åįľ": 4629,
      "ä¸įéĶĻçļĦéĢīæĭ©": 4630,
      "åĨłåĨĽ": 4631,
      "æĽ´æĸ°": 4632,
      "å¯¹åħ¶": 4633,
      "éĻ¤ä»¥": 4634,
      "çĶµè§Ĩåī§": 4635,
      "éĺ¶æ®µ": 4636,
      "æ¯ķ": 4637,
      "è¿Ļç¯ĩæĸĩç«łä¸»è¦ģ": 4638,
      "åĪ·": 4639,
      "åıĺéĿ©": 4640,
      "åĿĩè¡¡": 4641,
      "æģ¢": 4642,
      "çļĦæĹ¥": 4643,
      "ä¼ŀ": 4644,
      "å½Ĵç±»ä¸º": 4645,
      "é¦¨": 4646,
      "ä¸ºç»Ļå®ļçļĦ": 4647,
      "åĴĮä¸į": 4648,
      "æľªæĿ¥åıĳå±ķ": 4649,
      "æ¶ĪèĢĹ": 4650,
      "å°¼åħĭåı·": 4651,
      "å¸¦æĿ¥çļĦ": 4652,
      "æĪĳæĥ³è¦ģ": 4653,
      "çļĦä½įç½®": 4654,
      "æµģç¨ĭ": 4655,
      "åıĭè°Ĭ": 4656,
      "çļĦæ¯ı": 4657,
      "åı«åģļ": 4658,
      "çļĦæ¢¦": 4659,
      "èī³": 4660,
      "ä»ĸæĥ³": 4661,
      "çĻ¾æĲŃ": 4662,
      "åı¯èĥ½å¯¼èĩ´": 4663,
      "ä»¿ä½Ľ": 4664,
      "åĬłéĢŁ": 4665,
      "æĹģ": 4666,
      "ç²¾åĩĨ": 4667,
      "åľĭ": 4668,
      "åŃĻ": 4669,
      "æĺ¯åĲ¦æľī": 4670,
      "éĩĩåıĸè¡ĮåĬ¨": 4671,
      "éŃħåĬĽ": 4672,
      "ç©·": 4673,
      "åĬ¨åĬĽ": 4674,
      "ç¢Ĺ": 4675,
      "å¤§åľ°": 4676,
      "æ¢¦æĥ³": 4677,
      "åĮ»çĸĹè¡Įä¸ļ": 4678,
      "åı¯ä»¥æĺ¯": 4679,
      "æŁłæª¬": 4680,
      "éĩĬæĶ¾": 4681,
      "çļĦè¯Ŀé¢ĺ": 4682,
      "æºª": 4683,
      "çĥ¦": 4684,
      "åĮĸåĴĮ": 4685,
      "å¸Ĥä¸Ńå¿ĥ": 4686,
      "è¯ĬæĸŃåĴĮæ²»çĸĹ": 4687,
      "æ³°åĿ¦å°¼åħĭåı·": 4688,
      "çŃīæĸ¹å¼ı": 4689,
      "èįĴ": 4690,
      "åı¯ä»¥å°Ĩ": 4691,
      "çĮª": 4692,
      "æĳĺåıĸ": 4693,
      "çļĦç¥ŀ": 4694,
      "çļĦæ¶Ī": 4695,
      "å¦ĤæŀľæĤ¨åĸľæ¬¢": 4696,
      "å¤§å¤ļæķ°": 4697,
      "è°ĵè¯Ń": 4698,
      "èĬĤçĽ®": 4699,
      "æĺ¾èĳĹ": 4700,
      "ç¡®è®¤": 4701,
      "å¯Įæľī": 4702,
      "æŃĮè¯į": 4703,
      "é³": 4704,
      "å§ĵåĲį": 4705,
      "ä¸įå¥½": 4706,
      "æĿ¨": 4707,
      "çĽ¸åıį": 4708,
      "ä¾Ŀèµĸ": 4709,
      "åĩĨç¡®æĢ§": 4710,
      "çĬ¯ç½ª": 4711,
      "ç±»åŀĭçļĦ": 4712,
      "åľ°çĲĥçļĦ": 4713,
      "çĶŁæĪĲä¸Ģç¯ĩ": 4714,
      "å½ĵæĹ¶": 4715,
      "åĪĨæĶ¯": 4716,
      "ä½ĵéĩį": 4717,
      "èĬĤèĥ½": 4718,
      "çģ«è½¦": 4719,
      "é¢ĨåŁŁçļĦåºĶçĶ¨": 4720,
      "åĲĪçī©": 4721,
      "åĴĮæľįåĬ¡": 4722,
      "æ¼Ķè®²": 4723,
      "ä¸ĢçĤ¹": 4724,
      "çļĦæ·±": 4725,
      "éģĵè·¯": 4726,
      "ç½©": 4727,
      "è¿Ĳè¡Į": 4728,
      "ä¸İåħ¶ä»ĸ": 4729,
      "çĤİçĥŃ": 4730,
      "çĶ³åħĭ": 4731,
      "èĤĸçĶ³åħĭ": 4732,
      "èĢħçļĦ": 4733,
      "çļĦæķĳ": 4734,
      "é»ĳæļĹ": 4735,
      "ä¸ªåŃĹ": 4736,
      "ä½łèĥ½åĳĬè¯īæĪĳ": 4737,
      "Ã·": 4738,
      "ç¨¿": 4739,
      "ï¼ģâĢĿ": 4740,
      "æĪĳè¦ģ": 4741,
      "ç©¿è¶Ĭ": 4742,
      "æĪĲæŀľ": 4743,
      "çļĦç¾İå¥½": 4744,
      "ä½¿çĶ¨äºĨ": 4745,
      "çº¤ç»´": 4746,
      "ä½łèĥ½å¸®æĪĳ": 4747,
      "çļĦæŃĮæĽ²": 4748,
      "åľ¨åĵªéĩĮ": 4749,
      "èĢĮæĺ¯": 4750,
      "åłµ": 4751,
      "äºļæ´²": 4752,
      "çļĦçĬ": 4753,
      "å¹¶å°Ĩ": 4754,
      "æĤ¨åı¯ä»¥å°Ŀè¯ķ": 4755,
      "çĻĮçĹĩ": 4756,
      "è¶ĬæĿ¥è¶Ĭå¤ļ": 4757,
      "çļĦæĳĦåħ¥": 4758,
      "çļĦåħ³éĶ®è¯į": 4759,
      "ä½łåı¯ä»¥å°Ŀè¯ķ": 4760,
      "æĶ¾æĿ¾èº«å¿ĥ": 4761,
      "æĤī": 4762,
      "ãĢĤãĢĬ": 4763,
      "æı´": 4764,
      "èĢĮè¨Ģ": 4765,
      "ä»£æĽ¿": 4766,
      "ç®Ģæĺİ": 4767,
      "å¥¥è¿Ĳä¼ļ": 4768,
      "èĭ±éĽĦ": 4769,
      "æıĴ": 4770,
      "ç§įæ¤į": 4771,
      "ä¿¡ä»»": 4772,
      "çļĦä»·æł¼": 4773,
      "åľ¨ç»Ļå®ļçļĦ": 4774,
      "åĩºåıĳ": 4775,
      "æ¼ł": 4776,
      "éģ¥": 4777,
      "éĤĢ": 4778,
      "è¿ĺèĥ½": 4779,
      "åĩıè½»åİĭåĬĽ": 4780,
      "çļĦç¬ĳ": 4781,
      "æł¹æį®æīĢ": 4782,
      "çĶµåĬ¨": 4783,
      "èħ°": 4784,
      "æķ´ä½ĵ": 4785,
      "éĶģ": 4786,
      "åľ¨åħ¬åĽŃéĩĮ": 4787,
      "æĦıå¤§åĪ©éĿ¢": 4788,
      "é©±": 4789,
      "æĬµ": 4790,
      "è§£çŃĶ": 4791,
      "æĬĳ": 4792,
      "æīĵç®Ĺ": 4793,
      "çļĦæŃ£": 4794,
      "éªĳèĩªè¡Įè½¦": 4795,
      "æ¯«": 4796,
      "åĪ¶åĵģ": 4797,
      "ç¢į": 4798,
      "Ġ5": 4799,
      "æĻ¯è§Ĥ": 4800,
      "å¼ķäºº": 4801,
      "å¿ĥæĢģ": 4802,
      "åİ»åħ¬åĽŃ": 4803,
      "åľºæīĢ": 4804,
      "æľīçĶ¨": 4805,
      "çİĩåĴĮ": 4806,
      "æĢ»ä¹ĭ": 4807,
      "æĪĳæŃ£åľ¨": 4808,
      "ä½¿åħ¶æĽ´åĬłç®Ģæ´ģ": 4809,
      "å¹¶è¿Ľè¡Į": 4810,
      "é¡¾å®¢": 4811,
      "è¯Ĺäºº": 4812,
      "ä¸įæĸŃåľ°": 4813,
      "çļĦåĲįç§°": 4814,
      "åį¢": 4815,
      "å£¤": 4816,
      "ç¼ĸè¾ĳä»¥ä¸ĭåı¥åŃĲ": 4817,
      "æĢİä¹ĪåĬŀ": 4818,
      "éĶĢåĶ®é¢Ŀ": 4819,
      "ä¸ªæľĪ": 4820,
      "è´«": 4821,
      "çģ«æĺŁ": 4822,
      "æľºåľº": 4823,
      "çļĦä¸»è¦ģè§ĤçĤ¹æĺ¯": 4824,
      "è¿Ļåľº": 4825,
      "å¿ħè¦ģçļĦ": 4826,
      "ä¸īç§į": 4827,
      "yt": 4828,
      "é¹ħ": 4829,
      "çĺ¦": 4830,
      "æĺ¯ç¾İåĽ½": 4831,
      "è°·æŃĮ": 4832,
      "é«ĺçļĦå±±å³°": 4833,
      "çº¢èī²çļĦ": 4834,
      "èĥ¸": 4835,
      "ä¸įèµ·": 4836,
      "çļĦçľŁ": 4837,
      "è¢«ç§°ä¸º": 4838,
      "æĻ®éĢļ": 4839,
      "åĲ¬éŁ³ä¹Ĳ": 4840,
      "äººç±»æ´»åĬ¨": 4841,
      "æ²Ļåıĳ": 4842,
      "çļĦçĽ®æłĩ": 4843,
      "æĪĳå»ºè®®": 4844,
      "æĽ´æĶ¹": 4845,
      "éĿŀæ´²": 4846,
      "æĮĩçļĦæĺ¯": 4847,
      "çļĦå¤ĸ": 4848,
      "ç¨į": 4849,
      "çļĦæ£": 4850,
      "åįİçĽĽ": 4851,
      "åħĶåŃĲ": 4852,
      "é¢ĨåŁŁä¸Ń": 4853,
      "ä¾£": 4854,
      "åıĳåĩº": 4855,
      "èİī": 4856,
      "ä»·åĢ¼è§Ĥ": 4857,
      "å¯ĴåĨ·": 4858,
      "åĲİçļĦ": 4859,
      "åħĪçĶŁ": 4860,
      "æĳĦæ°ıåº¦": 4861,
      "ä½¿çĶ¨çļĦ": 4862,
      "æĺ¯æĪĳä»¬": 4863,
      "æĻ®éģį": 4864,
      "ython": 4865,
      "å»ºè®®åĲĹ": 4866,
      "ç©ĨæľĹ": 4867,
      "æī¾åĪ°äºĨ": 4868,
      "å·²ç»ıæĪĲä¸º": 4869,
      "æķ°æį®çļĦ": 4870,
      "ä¸ŃåĽ½çļĦ": 4871,
      "ç²¾å½©": 4872,
      "æ¯ıå¹´": 4873,
      "æ»´": 4874,
      "åįİçĽĽé¡¿": 4875,
      "åĸľæ¬¢çļĦ": 4876,
      "le": 4877,
      "æ¶Īæģ¯": 4878,
      "ä¾ĽåºĶ": 4879,
      "ä¸»äººåħ¬": 4880,
      "çĩĥæĸĻ": 4881,
      "ç©ĨæľĹçİĽ": 4882,
      "è°ĥèĬĤ": 4883,
      "åĲ¬åĪ°": 4884,
      "åĨ¬å¤©": 4885,
      "åĽłä¸ºæĪĳ": 4886,
      "2022": 4887,
      "ä¿Ħ": 4888,
      "å¿ĥçģµ": 4889,
      "ä¾¿æį·": 4890,
      "æ°´åĴĮ": 4891,
      "å¹´è½»äºº": 4892,
      "Ġäººå·¥æĻºèĥ½": 4893,
      "é¸Łç±»": 4894,
      "è§ĦèĮĥ": 4895,
      "ç§ĳæĬĢçļĦ": 4896,
      "æłĩå¿Ĺ": 4897,
      "å¾Īæ£Ĵ": 4898,
      "è´¸æĺĵ": 4899,
      "ä½Ĩä¸į": 4900,
      "Python": 4901,
      "çĮľ": 4902,
      "è¯Ńä¹ī": 4903,
      "èĴľ": 4904,
      "ä¹Łä¸į": 4905,
      "æĺ¯è°ģ": 4906,
      "åĮĹæŀģ": 4907,
      "æµ´": 4908,
      "ä¿ĿéĻ©": 4909,
      "åı¯èĥ½æĢ§": 4910,
      "ç©ĨæľĹçİĽå³°": 4911,
      "åħ¬ä¼Ĺ": 4912,
      "çĽĪ": 4913,
      "çŃīæĬĢæľ¯": 4914,
      "åŀ«": 4915,
      "å¤įåı¤": 4916,
      "å½ĵä»Ĭ": 4917,
      "æĢ§åĪ«": 4918,
      "æļĤ": 4919,
      "çļĦçľ¼": 4920,
      "çĪ¸": 4921,
      "èº«ä½ĵåĴĮ": 4922,
      "å¸®åĬ©æĤ¨": 4923,
      "æľºéģĩ": 4924,
      "çº¦ä¸º": 4925,
      "çļĦçģµ": 4926,
      "æııè¿°ä¸Ģä¸ª": 4927,
      "åĩıå°ĳä½¿çĶ¨": 4928,
      "çİ»": 4929,
      "éķ¿åŁİ": 4930,
      "ä¹ĭéĹ´çļĦåħ³ç³»": 4931,
      "an": 4932,
      "åģ¶": 4933,
      "å½¢çļĦ": 4934,
      "é£İæļ´": 4935,
      "å¹³çŃī": 4936,
      "æ¶Ĥ": 4937,
      "èµĦæĸĻ": 4938,
      "åİ¨æĪ¿": 4939,
      "Ġåħ¶": 4940,
      "è¿Ļä½į": 4941,
      "æĿİæĺİ": 4942,
      "å±±èĦī": 4943,
      "æŃ£å¸¸": 4944,
      "ä»ĸä»¬åľ¨": 4945,
      "çļĦæµģ": 4946,
      "åıªè¦ģ": 4947,
      "è¯ģæĺİ": 4948,
      "åĮºåĪ«": 4949,
      "çĴĥ": 4950,
      "è®©äººä»¬": 4951,
      "å¾Īéļ¾": 4952,
      "å¼ķåĬĽ": 4953,
      "çļĦæ°´æŀľ": 4954,
      "åĩºåİ»": 4955,
      "ä¾§": 4956,
      "å°¤åħ¶æĺ¯": 4957,
      "ç¬¬äºĮä¸ª": 4958,
      "çļĦæĥħèĬĤ": 4959,
      "æĽ´é«ĺ": 4960,
      "å¼ºå¤§": 4961,
      "æĿ¥æıĲé«ĺ": 4962,
      "ä»Ĭå¤©çļĦå¤©æ°Ķ": 4963,
      "ç¼ĺ": 4964,
      "åģļèµ·": 4965,
      "éĺ³åħīæĺİåªļ": 4966,
      "æİ¥ç§į": 4967,
      "åĩºä¸Ģä¸ª": 4968,
      "è³ĩ": 4969,
      "çľŁæĺ¯": 4970,
      "è¡¬è¡«": 4971,
      "æģ¢å¤į": 4972,
      "å¿ĥåĴĮ": 4973,
      "æµ¸": 4974,
      "ç¤ºä¾ĭ": 4975,
      "æ´»åĬĽ": 4976,
      "åĴĮè°Ĳ": 4977,
      "çļĦæķĳèµİ": 4978,
      "åı£åı·": 4979,
      "ä¸¥æł¼": 4980,
      "åĽĽä¸ª": 4981,
      "çıłç©ĨæľĹçİĽå³°": 4982,
      "çİ¯å¢ĥéĹ®é¢ĺ": 4983,
      "èģĮä½į": 4984,
      "éħįæĸĻ": 4985,
      "çļĦæĢģ": 4986,
      "è®ĵ": 4987,
      "è¯´è¯Ŀ": 4988,
      "å°¼äºļ": 4989,
      "ç¥ĸ": 4990,
      "æī©å¤§": 4991,
      "å¹¶ä¸º": 4992,
      "ä¼ĺæĥł": 4993,
      "åĴĮå·¥ä½ľ": 4994,
      "æĪĲç«ĭ": 4995,
      "æłĩçĤ¹ç¬¦åı·": 4996,
      "ç½ļ": 4997,
      "è¯¥åı¥åŃĲ": 4998,
      "åľ°éľĩ": 4999,
      "æĽ´åħ·ä½ĵ": 5000,
      "çļĦæ½ľ": 5001,
      "ä¸ĭéĿ¢çļĦæĸĩæľ¬": 5002,
      "è¿Ļéģĵ": 5003,
      "æłĩè®°": 5004,
      "ä¸įæĸŃåıĳå±ķ": 5005,
      "å¤·": 5006,
      "ä¸įå¾Ĺ": 5007,
      "åı¯ä»¥ä»İ": 5008,
      "éħª": 5009,
      "ä»ĸåĢĳ": 5010,
      "åĨĻä¸Ģé¦ĸ": 5011,
      "å°ıæľĭåıĭ": 5012,
      "æ®ĸ": 5013,
      "åĴĮåĪĨæŀĲ": 5014,
      "æµħ": 5015,
      "çĶµå½±åĲįç§°": 5016,
      "çļĦæĶ¹": 5017,
      "ä¸Ģéģĵ": 5018,
      "çļĦç¾İä¸½": 5019,
      "æĺ¯å¦Ĥä½ķ": 5020,
      "æ¶¨": 5021,
      "çľ¼çĿĽ": 5022,
      "çļĦåħ³ç³»": 5023,
      "æľīä»»ä½ķ": 5024,
      "æīĭæľ¯": 5025,
      "æİ¨æĸŃ": 5026,
      "è¦ģæ³¨æĦı": 5027,
      "å¹³æĸ¹": 5028,
      "éģµå®Ī": 5029,
      "åĶ¯ä¸Ģ": 5030,
      "èĤĸçĶ³åħĭçļĦæķĳèµİ": 5031,
      "åĴĮé«ĺ": 5032,
      "æ¼ı": 5033,
      "çļĦæĻ¯çĤ¹": 5034,
      "æľºåĪ¶": 5035,
      "çļĦæĬĢå·§": 5036,
      "äºĴçĽ¸": 5037,
      "æıĲåīį": 5038,
      "åĩĿ": 5039,
      "åĩ¯": 5040,
      "æĪĳåİ»äºĨ": 5041,
      "ä¸ĢåĪĩ": 5042,
      "è¯ŃæĢģ": 5043,
      "åħīçº¿": 5044,
      "åĪ©çĽĬ": 5045,
      "æ´Ĵ": 5046,
      "æĤ¨åı¯ä»¥åľ¨": 5047,
      "äºİæĺ¯": 5048,
      "ç¿ł": 5049,
      "åı¯ä»¥æł¹æį®": 5050,
      "éĵº": 5051,
      "æĺ¯éĢļè¿ĩ": 5052,
      "æĺ¯ä¸Ģé¡¹": 5053,
      "ä¸įåĪ°": 5054,
      "çļĦæĬķ": 5055,
      "çļĦé«ĺ": 5056,
      "å©´": 5057,
      "ä¼ļæľī": 5058,
      "åıĹä¼¤": 5059,
      "ä¼ļå¯¼èĩ´": 5060,
      "éī": 5061,
      "æ§": 5062,
      "åĢĴåħ¥": 5063,
      "å®ĮåĸĦ": 5064,
      "åŁ¹è®Ń": 5065,
      "ä½©": 5066,
      "æĮĸ": 5067,
      "å°ĩ": 5068,
      "çĭĹçļĦ": 5069,
      "åĴĮæķ°æį®": 5070,
      "åĩłå¹´": 5071,
      "è¯·åĽŀçŃĶ": 5072,
      "çº¢æ¥¼": 5073,
      "äºĮåįģ": 5074,
      "ç·": 5075,
      "è¢«è®¤ä¸ºæĺ¯": 5076,
      "è®²ä¸Ģä¸ª": 5077,
      "éĽ¾": 5078,
      "æľīéĻĲ": 5079,
      "âĢ¦âĢ¦": 5080,
      "æĺ¯åĽłä¸º": 5081,
      "äººå·¥æĻºèĥ½æĬĢæľ¯åľ¨": 5082,
      "çĶ¨åĵģ": 5083,
      "æģĲæĢĸ": 5084,
      "åĩıå°ĳæ±¡æŁĵ": 5085,
      "å®īè£ħ": 5086,
      "åİĨåı²ä¸Ĭ": 5087,
      "éĿ©åĳ½": 5088,
      "æŃ¥è¡Į": 5089,
      "æĸĩä»¶": 5090,
      "èıĩ": 5091,
      "æ±¤å§Ĩ": 5092,
      "æ©ĺ": 5093,
      "ç§ĳå¹»å°ıè¯´": 5094,
      "æī«": 5095,
      "å®īéĿĻ": 5096,
      "å®¶åħ·": 5097,
      "æīĭè¡¨": 5098,
      "æľĢå¤ļ": 5099,
      "å¸®æĤ¨": 5100,
      "æĿī": 5101,
      "é¥®é£Łä¹łæĥ¯": 5102,
      "è¶ħçº§": 5103,
      "éĺĲè¿°": 5104,
      "çļĦæŃ¥": 5105,
      "ä¸Ģåħ±": 5106,
      "ä¸īè§Ĵ": 5107,
      "èģĺ": 5108,
      "æľīæĹ¶": 5109,
      "ç¢§": 5110,
      "ä¿ĿæĬ¤æĪĳä»¬çļĦ": 5111,
      "çļĦæ¨¡": 5112,
      "ä¼¸": 5113,
      "åĲĮåŃ¦": 5114,
      "èĬĤå¥ı": 5115,
      "æĸľ": 5116,
      "é¢Ī": 5117,
      "çİ»çĴĥ": 5118,
      "è½¬åĮĸä¸º": 5119,
      "åĲĮæł·": 5120,
      "æĸĩç«łä¸ŃæıĲåıĸåĩº": 5121,
      "åįĹæŀģ": 5122,
      "çļĦæ¸ħ": 5123,
      "æĪĲåĬŁçļĦ": 5124,
      "åĩºçĶŁ": 5125,
      "å°ıæĺİåĴĮå°ıçº¢": 5126,
      "åıł": 5127,
      "èµ·æºĲ": 5128,
      "æ¾³": 5129,
      "2018": 5130,
      "è®©è®¡ç®Ĺæľº": 5131,
      "æĦıè¯ĨåĪ°": 5132,
      "åĮºåĿĹéĵ¾æĬĢæľ¯": 5133,
      "åĲ´": 5134,
      "å¤©ä½ĵ": 5135,
      "æıĲåıĸè¿Ļç¯ĩæĸĩç«ł": 5136,
      "æİ¥çĿĢ": 5137,
      "æĹ©æĻ¨": 5138,
      "å¸®æĪĳçĶŁæĪĲåķĨåĵģæĸĩæ¡Ī": 5139,
      "åĲįè¯įçŁŃè¯Ń": 5140,
      "åº¦çļĦ": 5141,
      "å¯Ħ": 5142,
      "å¼Ģå±ķ": 5143,
      "çĥŃéĩı": 5144,
      "èĩªåĬ¨é©¾é©¶æ±½è½¦": 5145,
      "çĲĥåĳĺ": 5146,
      "å¤§è±¡": 5147,
      "Ŀåįľ": 5148,
      "åĮĸåĲĪçī©": 5149,
      "çĽ®çļĦæĺ¯": 5150,
      "çļĦè´¨éĩı": 5151,
      "è¯·ä»İæĸĩç«łä¸ŃæıĲåıĸåĩº": 5152,
      "æ¯ģ": 5153,
      "ä¸Ģæ¬¡æĢ§": 5154,
      "åŀĤ": 5155,
      "èĦĨ": 5156,
      "ç»Ĩèħ»": 5157,
      "æħ¢æħ¢": 5158,
      "æ¢¨": 5159,
      "å¦Ĩ": 5160,
      "ç¾İæĻ¯": 5161,
      "éĿŀæ³ķ": 5162,
      "æľĪçĲĥ": 5163,
      "è¿ĻäºĽéĥ½æĺ¯": 5164,
      "èĬ±è´¹": 5165,
      "æĻ®åıĬ": 5166,
      "èĩªçĦ¶çİ¯å¢ĥ": 5167,
      "åĬŀåħ¬å®¤": 5168,
      "éī´": 5169,
      "ä¼ļåľ¨": 5170,
      "åĴĮæĹ¶éĹ´": 5171,
      "éŀĭåŃĲ": 5172,
      "çīĪåŀĭ": 5173,
      "åĲģ": 5174,
      "ä¸Ģä¸ªéĹ®é¢ĺ": 5175,
      "å¡ĳæĸĻè¢ĭ": 5176,
      "æ»¤": 5177,
      "å¤º": 5178,
      "æĭħå¿ĥ": 5179,
      "èŀįåĲĪ": 5180,
      "å¿ĺè®°": 5181,
      "åĪ«äºº": 5182,
      "çº¢æ¥¼æ¢¦": 5183,
      "æħĪ": 5184,
      "è¿Ļå°Ĩ": 5185,
      "è°ĭ": 5186,
      "çĿ¡è§ī": 5187,
      "åĬ£": 5188,
      "40": 5189,
      "è¾Ľ": 5190,
      "é¡Į": 5191,
      "åľºåĲĪ": 5192,
      "é¹¿": 5193,
      "æĻļé¤Ĳ": 5194,
      "è¿ĺåī©": 5195,
      "ä»¥ä¸ĭéĹ®é¢ĺ": 5196,
      "ç»Ļå®ļä¸Ģç¯ĩæĸĩç«ł": 5197,
      "èħ¾": 5198,
      "éĩıåŃĲåĬĽåŃ¦": 5199,
      "æ¥Ń": 5200,
      "æķ°ä¸º": 5201,
      "åİĨç¨ĭ": 5202,
      "æĦĪ": 5203,
      "è¿Ļåº§": 5204,
      "å¾®é£İ": 5205,
      "å¤±è´¥": 5206,
      "åĬ¨è¯ŃæĢģ": 5207,
      "åĮĹäº¬å¸Ĥ": 5208,
      "è¿Ļæĺ¯ä¸Ģéĥ¨": 5209,
      "åĲĦä¸ªé¢ĨåŁŁ": 5210,
      "è¯·æ±Ĥ": 5211,
      "å¿ĥä¸Ń": 5212,
      "ä¼ı": 5213,
      "åľ¨æĪĳ": 5214,
      "æľīæĦıä¹ī": 5215,
      "ä¸Ĭæĺł": 5216,
      "è°¢è°¢ä½ł": 5217,
      "äºĨä»Ģä¹Ī": 5218,
      "è¤": 5219,
      "å®ĭ": 5220,
      "æĶ¾å¼ĥ": 5221,
      "çĶŁåĬ¨": 5222,
      "çŁ¶": 5223,
      "é£İåħī": 5224,
      "çļĦä¾ĭåŃĲ": 5225,
      "åħĪè¿Ľ": 5226,
      "åľŁå£¤": 5227,
      "çļĦçĮ«": 5228,
      "çļĦæĶ¯æĮģ": 5229,
      "ç²¾èĩ´": 5230,
      "ç¥ŀç§ĺçļĦ": 5231,
      "æĪĳåĴĮ": 5232,
      "çļĦç¼ĸç¨ĭ": 5233,
      "ä¹ŁéĿŀå¸¸": 5234,
      "çĥŃæĥħ": 5235,
      "æĪĳä¸įçŁ¥éģĵ": 5236,
      "éĢļé¡º": 5237,
      "åĮ»åŃ¦å½±åĥı": 5238,
      "åĽ¾æ¡Ī": 5239,
      "å°ıçļĦ": 5240,
      "ä½łä¹Łåı¯ä»¥": 5241,
      "çĽ¸åºĶçļĦ": 5242,
      "500": 5243,
      "è®©å®ĥ": 5244,
      "æł¸å¿ĥ": 5245,
      "æķ°çĻ¾": 5246,
      "å¯¹è±¡": 5247,
      "åŃ¦èĢħ": 5248,
      "åĴĮæĥħæĦŁ": 5249,
      "çī©èģĶç½ĳ": 5250,
      "å®¶åĽŃ": 5251,
      "è§Ĩä¸º": 5252,
      "çªģåĩº": 5253,
      "åºŁå¼ĥ": 5254,
      "å¿łè¯ļ": 5255,
      "å¼¦": 5256,
      "æĸĩæ¡£": 5257,
      "ä¸ĢçĽ´åľ¨": 5258,
      "çļĦæķĪæŀľ": 5259,
      "å¤§çĨĬçĮ«": 5260,
      "æĸĳ": 5261,
      "åĴĮäººç±»": 5262,
      "éŃĤ": 5263,
      "è¯ģæį®": 5264,
      "è½¨": 5265,
      "åĿĲåľ¨": 5266,
      "æħİ": 5267,
      "æŀĦæĪĲ": 5268,
      "ä¸Ģèµ·åİ»": 5269,
      "ä¼¤å®³": 5270,
      "çĶŁæĪĲæĸĩæ¡Ī": 5271,
      "çĥĤ": 5272,
      "åį³å°Ĩ": 5273,
      "è¿ĳæľŁ": 5274,
      "å¤§æĪĺ": 5275,
      "è¾£æ¤Ĵ": 5276,
      "ç¾İåĽ½æĢ»ç»Ł": 5277,
      "ä¸¤åı¥è¯Ŀ": 5278,
      "éĻ¤æ³ķ": 5279,
      "å¿ĥçĲĨåŃ¦": 5280,
      "å·¥ç¨ĭå¸Ī": 5281,
      "Ġå½ĵçĦ¶åı¯ä»¥": 5282,
      "ä¹ĭæĹħ": 5283,
      "çĳ°": 5284,
      "åı¯è¯»": 5285,
      "èĢģé¼ł": 5286,
      "æŁ³": 5287,
      "ä¸Ģæ®µè¯Ŀ": 5288,
      "è´Łè´£": 5289,
      "å«Į": 5290,
      "çĹħäºº": 5291,
      "ç£ģ": 5292,
      "æ¢ģ": 5293,
      "é¼»": 5294,
      "å°½å¿«": 5295,
      "ä¸ĬçıŃ": 5296,
      "èĵĿèī²çļĦ": 5297,
      "ç¡®å®ŀ": 5298,
      "æ³ª": 5299,
      "åĮĸçŁ³": 5300,
      "éĺ¿çĶĺ": 5301,
      "èµ¶": 5302,
      "æ´ĭèĳ±": 5303,
      "ç¿Ķ": 5304,
      "éĩĳå±ŀ": 5305,
      "è±¡å¾ģ": 5306,
      "çĶ»éĿ¢": 5307,
      "åį±å®³": 5308,
      "æ¼«æŃ¥": 5309,
      "æ¸©é¦¨": 5310,
      "é¸ŁåĦ¿": 5311,
      "åģ·": 5312,
      "åı¤åħ¸": 5313,
      "çĶµå½±éĻ¢": 5314,
      "éĤ¦": 5315,
      "çħİ": 5316,
      "çī¹åĪ«æĺ¯": 5317,
      "æĦ¿æĦı": 5318,
      "çĲĥéĺŁ": 5319,
      "åĲ¬è¯´": 5320,
      "è¿Ļä»½": 5321,
      "ä¸Ģç¯ĩåħ³äºİ": 5322,
      "åľŁåľ°": 5323,
      "åħ±äº«": 5324,
      "æľĢä½İ": 5325,
      "éªĮè¯ģ": 5326,
      "çļĦåŃ¦ä¹ł": 5327,
      "ç²®": 5328,
      "è¯·ä¸º": 5329,
      "åĴĮå»ºè®®": 5330,
      "æĮĩåįĹ": 5331,
      "æ©Ł": 5332,
      "çļĦå½¢å¼ı": 5333,
      "æĸ°åĨł": 5334,
      "å¸¦æľī": 5335,
      "èĩ£": 5336,
      "æĪĸæĺ¯": 5337,
      "çĽĨ": 5338,
      "ä¼Ĺå¤ļ": 5339,
      "éĻ¤æŃ¤": 5340,
      "ç¾İåĳ³çļĦ": 5341,
      "å¯º": 5342,
      "éĥ½èĥ½": 5343,
      "çļĦä¸į": 5344,
      "åģ¥åº·åĴĮ": 5345,
      "çļĦæĦŁåıĹ": 5346,
      "æĮĩä»¤": 5347,
      "å¤±åİ»": 5348,
      "æĬķåħ¥": 5349,
      "æľ¬å°ıè¯´": 5350,
      "æĭĸ": 5351,
      "åįıåĬ©": 5352,
      "æµĵéĥģ": 5353,
      "æ³¥": 5354,
      "æľįè£ħ": 5355,
      "åĩºçİ°äºĨ": 5356,
      "åİŁåĪĻ": 5357,
      "èģĬèģĬ": 5358,
      "åįĩé«ĺ": 5359,
      "è´¹çĶ¨": 5360,
      "è¦ĨçĽĸ": 5361,
      "ä¿¡åı·": 5362,
      "éĢıæĺİ": 5363,
      "è°¨": 5364,
      "æľĢéĩįè¦ģçļĦ": 5365,
      "è®¤çľŁ": 5366,
      "æľīäºº": 5367,
      "æĪĳä»¬å¿ħé¡»": 5368,
      "ä¸ªåįķè¯į": 5369,
      "ä¹Ĳè¶£": 5370,
      "å¨ľ": 5371,
      "åįĵ": 5372,
      "çĶ¨æ°´": 5373,
      "çİ¯ä¿Ŀæİªæĸ½": 5374,
      "åľ¨è¿ĻéĩĮ": 5375,
      "æ¶¯": 5376,
      "æĶĢ": 5377,
      "åĳ¼åĲģ": 5378,
      "åĬĽäºİ": 5379,
      "ä¸ĭåĳ¨": 5380,
      "è¿Ľè¡ĮæĶ¹åĨĻ": 5381,
      "æľ±": 5382,
      "å¸®åĬ©ä½ł": 5383,
      "éĢĨ": 5384,
      "éĹ®çŃĶ": 5385,
      "å¼Ĥå¸¸": 5386,
      "æĨ": 5387,
      "éĩİçĶŁåĬ¨çī©": 5388,
      "çļĦèĬ±": 5389,
      "ä¹Łå°±æĺ¯": 5390,
      "çļĦé¤Ĳåİħ": 5391,
      "åĽŀå½Ĵ": 5392,
      "çļĨ": 5393,
      "åİŁæĿ¥": 5394,
      "çŃīå¤ļä¸ª": 5395,
      "åľ¨éĤ£éĩĮ": 5396,
      "éĻ¤æŃ¤ä¹ĭå¤ĸ": 5397,
      "åĴĮæĬĢæľ¯": 5398,
      "åł´": 5399,
      "æĪĳè§īå¾Ĺ": 5400,
      "æ°´ä¸Ń": 5401,
      "è®¾è®¡ä¸Ģä¸ª": 5402,
      "çĸı": 5403,
      "é¥±": 5404,
      "èĢĮä¸į": 5405,
      "ç»µ": 5406,
      "æĴĴ": 5407,
      "å¦ĤæŀľæĤ¨éľĢè¦ģ": 5408,
      "è¯·æıĲåıĸåĩº": 5409,
      "æĥħæĦŁåĪĨç±»": 5410,
      "è¿Ļæł·çļĦ": 5411,
      "çļĦæ¢¦æĥ³": 5412,
      "æĿīçŁ¶": 5413,
      "æĪĳå·²ç»ı": 5414,
      "æĸ¹æ³ķåı¯ä»¥": 5415,
      "çļĦåĳ³éģĵ": 5416,
      "å¾¡": 5417,
      "æľīå®³": 5418,
      "æ£ĭ": 5419,
      "æĻ¶": 5420,
      "åĪĽä¸ļ": 5421,
      "åĭĥ": 5422,
      "çĤī": 5423,
      "çį": 5424,
      "èµĦéĩĳ": 5425,
      "____": 5426,
      "åįķä½į": 5427,
      "å®ĥåľ¨": 5428,
      "åı¥åŃĲä¸ŃçļĦ": 5429,
      "éĢīæĭ©ä¸Ģä¸ª": 5430,
      "åŃ©åŃĲä»¬": 5431,
      "æĹħæ¸¸çĽ®çļĦåľ°": 5432,
      "å¾Īä¸įéĶĻ": 5433,
      "ä¼ĺéĽħ": 5434,
      "ä»¥æıĲé«ĺ": 5435,
      "å§Ĳ": 5436,
      "æĿ¥çľĭ": 5437,
      "æ³¨æĦıåĬĽ": 5438,
      "ä»İè¿Ļç¯ĩæĸĩç«łä¸Ń": 5439,
      "å¯¹æīĭ": 5440,
      "æĶ¹åĨĻæĪĲ": 5441,
      "ä¼ļå¯¹": 5442,
      "å·¥ä½ľæķĪçİĩ": 5443,
      "éģĹäº§": 5444,
      "æĴĳ": 5445,
      "çļĦé¢ĨåŁŁ": 5446,
      "ä¸ĸçķĮæĿ¯": 5447,
      "éĻĪè¿°åı¥": 5448,
      "éļ¾å¿ĺ": 5449,
      "æĽ´å¥½åľ°çĲĨè§£": 5450,
      "å°½ç®¡ä»ĸ": 5451,
      "ç²¾ç¡®": 5452,
      "åĳ½åĲį": 5453,
      "ç»Ļäºº": 5454,
      "äºļé©¬": 5455,
      "çļĦæ°ĽåĽ´": 5456,
      "å®¶æĹı": 5457,
      "åħ¬æŃ£": 5458,
      "æ¯ıæ¬¡": 5459,
      "ç°": 5460,
      "çĽ¸å½ĵ": 5461,
      "æ»ļ": 5462,
      "åļ": 5463,
      "è¡¨è¿°": 5464,
      "çĵ·": 5465,
      "åĩıåİ»": 5466,
      "åı¯ä»¥å¸®åĬ©ä½ł": 5467,
      "èĥľåľ°": 5468,
      "åĪ©æ¶¦": 5469,
      "èŃ¦æĸ¹": 5470,
      "åĽŀåĪ°": 5471,
      "éĿĴå¹´": 5472,
      "çļĦä¼ĺçĤ¹": 5473,
      "æĺ¾å¾Ĺ": 5474,
      "åĢ¾åĲĳ": 5475,
      "è¿Ĳè¾ĵ": 5476,
      "ä»İä»¥ä¸ĭ": 5477,
      "éĶ»çĤ¼èº«ä½ĵ": 5478,
      "ä¼łéĢĴ": 5479,
      "é¥¼å¹²": 5480,
      "åı¯ä»¥åİ»": 5481,
      "åı¯ä»¥å¸®åĬ©åĮ»çĶŁ": 5482,
      "å¦»": 5483,
      "æĹħç¨ĭ": 5484,
      "åºĻ": 5485,
      "ç¤¾ä¼ļçļĦ": 5486,
      "å·¾": 5487,
      "åĲİçļĦæĸĩæľ¬": 5488,
      "Ġå½ĵçĦ¶": 5489,
      "èĪį": 5490,
      "çļĦç´": 5491,
      "ä¸ĭéĿ¢çļĦåı¥åŃĲ": 5492,
      "åıĳè¡¨": 5493,
      "80": 5494,
      "é©¬æĭī": 5495,
      "æĸĩæľ¬è¿Ľè¡ĮçºłéĶĻ": 5496,
      "å®¢åİħ": 5497,
      "è®°å¾Ĺ": 5498,
      "èĿ´": 5499,
      "åħģ": 5500,
      "åĪĩæĪĲ": 5501,
      "æ¯ıäºº": 5502,
      "æĺĤ": 5503,
      "èĿ´èĿ¶": 5504,
      "ç¿Ĵ": 5505,
      "ç»Īäºİ": 5506,
      "æĹ¥å¸¸çĶŁæ´»ä¸Ń": 5507,
      "åľ°éĵģ": 5508,
      "éĢļä¿¡": 5509,
      "ä»İä½ł": 5510,
      "è¹Ī": 5511,
      "ç»ĻäºĪ": 5512,
      "è°¢è°¢ä½łçļĦ": 5513,
      "å¯¹æĸĩæľ¬éĶĻè¯¯è¿Ľè¡Įä¿®æĶ¹": 5514,
      "æ°Ķè±¡": 5515,
      "åĬłåİļ": 5516,
      "ä¸Ĭè¿°æĸĩæľ¬è¿Ľè¡ĮçºłéĶĻ": 5517,
      "äºļé©¬éĢĬ": 5518,
      "æĹĹ": 5519,
      "åĪĨåĪ«æĺ¯": 5520,
      "åħ³éĶ®çĤ¹": 5521,
      "æķ°æį®ä¸Ń": 5522,
      "å¤§è§Ħæ¨¡": 5523,
      "åŀĭçĶ·": 5524,
      "ä½¿åħ¶æĽ´åĬłæµģçķħ": 5525,
      "ä¼Ĳ": 5526,
      "ä¸įå°ĳ": 5527,
      "ä»¥ä¸ĭæĸĩç«ł": 5528,
      "æĦıè§ģ": 5529,
      "è£Ĥ": 5530,
      "ç¼ĵè§£åİĭåĬĽ": 5531,
      "å¤±æľĽ": 5532,
      "çŃĽ": 5533,
      "æ´ĽæĿīçŁ¶": 5534,
      "èĥ¶": 5535,
      "å¾Į": 5536,
      "ä¸ŃçļĦåħ³éĶ®è¯į": 5537,
      "ä»ĩ": 5538,
      "Ġ+": 5539,
      "ç¢ĳ": 5540,
      "èĪĴéĢĤçļĦ": 5541,
      "èº«è¾¹": 5542,
      "åħ¨çĲĥèĮĥåĽ´åĨħ": 5543,
      "æľīæľº": 5544,
      "å¯ĵ": 5545,
      "èĸ¯": 5546,
      "éľį": 5547,
      "çļĦæĶ¶": 5548,
      "åŃ¦æľ¯": 5549,
      "è¿Ļé¦ĸè¯Ĺ": 5550,
      "æľĪäº®": 5551,
      "æĦŁçŁ¥": 5552,
      "ä½Ĩå®ĥ": 5553,
      "æĺĨ": 5554,
      "éĩįéĩı": 5555,
      "çĶµåĻ¨": 5556,
      "ä¼Ļä¼´": 5557,
      "ä¼ĺç¾İ": 5558,
      "åľ°åĿĢ": 5559,
      "çļĦçŁŃæĸĩ": 5560,
      "ä¹Łèĥ½": 5561,
      "åħ¥æīĭ": 5562,
      "ç§ĳæĬĢåĪĽæĸ°": 5563,
      "å¹¶è§£éĩĬ": 5564,
      "çĶŁæĢģçİ¯å¢ĥ": 5565,
      "æķĮ": 5566,
      "æ¨ª": 5567,
      "è®°èĢħ": 5568,
      "ä¼łç»ŁçļĦ": 5569,
      "èĪªç©º": 5570,
      "å°ıåŀĭ": 5571,
      "äººå·¥æĻºèĥ½åĴĮ": 5572,
      "æĢģåº¦": 5573,
      "çĳŁ": 5574,
      "çĭ®åŃĲ": 5575,
      "æĸĩèīº": 5576,
      "çļĦæ²Ļ": 5577,
      "èīºæľ¯å®¶": 5578,
      "è¸ı": 5579,
      "ä¸įåĨį": 5580,
      "ä¸ºä¸»": 5581,
      "è¢Ń": 5582,
      "åģ¥èº«æĪ¿": 5583,
      "ä¼ĺç§ĢçļĦ": 5584,
      "åı¯è¡Į": 5585,
      "äºĭé¡¹": 5586,
      "å¹´è½»çļĦ": 5587,
      "è¿ĻäºĽéĹ®é¢ĺ": 5588,
      "åĪĽéĢłåĬĽ": 5589,
      "äººæĢ§": 5590,
      "æ¢°": 5591,
      "çīĽä»Ķè£¤": 5592,
      "ä½ľä¸ļ": 5593,
      "åĩĨç¡®åľ°": 5594,
      "çļĦç¤¾äº¤": 5595,
      "äºĮæ°§åĮĸç¢³": 5596,
      "æĥħå¢ĥ": 5597,
      "åĲĮäºĭ": 5598,
      "çĭ¼": 5599,
      "ç³Ł": 5600,
      "çļĦä½ľçĶ¨": 5601,
      "æĪĸçŁŃè¯Ń": 5602,
      "åłĨ": 5603,
      "çļĦå®ļä¹ī": 5604,
      "æĺ¯ä¸ĸçķĮä¸ĬæľĢ": 5605,
      "èĩ´åĬĽäºİ": 5606,
      "æ¬º": 5607,
      "ĠAI": 5608,
      "éĢłæĪĲäºĨ": 5609,
      "çļĦç¤¼": 5610,
      "éĶĻè¿ĩ": 5611,
      "æĺİäº®": 5612,
      "å®ĹæķĻ": 5613,
      "éĿ¢ä¸Ĭ": 5614,
      "ä¹Łå°Ĩ": 5615,
      "å¸®åĬ©åĮ»çĶŁ": 5616,
      "èģĶçĽŁ": 5617,
      "æ¯Ķå¦Ĥè¯´": 5618,
      "æĢ§éĹ®é¢ĺ": 5619,
      "å½ĵæĪĳ": 5620,
      "åıĳéĢģ": 5621,
      "åıįæĺł": 5622,
      "å®ĺæĸ¹": 5623,
      "å¤±ä¸ļ": 5624,
      "çļĦæİ¢": 5625,
      "å®¶çĶ¨": 5626,
      "éĴ¢çĲ´": 5627,
      "æĳĺè¦ģçĶŁæĪĲ": 5628,
      "æķ°æį®åĴĮ": 5629,
      "äººå·¥æĻºèĥ½æĺ¯ä¸Ģç§į": 5630,
      "çĶŁæ´»çļĦ": 5631,
      "æ³Ħ": 5632,
      "çĸ²åĬ³": 5633,
      "éĤĢè¯·": 5634,
      "84": 5635,
      "çļĦç¨ĭ": 5636,
      "æĹ±": 5637,
      "NA": 5638,
      "åıĮæĸ¹": 5639,
      "æĲľç´¢å¼ķæĵİ": 5640,
      "çļĦæİĴæĶ¾": 5641,
      "çļĦæĦıæĢĿæĺ¯ä»Ģä¹Ī": 5642,
      "æģ¤": 5643,
      "å°ıæĺİçİ°åľ¨": 5644,
      "èĥ½åĬĽåĴĮ": 5645,
      "æłĸ": 5646,
      "çīĩæ®µ": 5647,
      "åĽŀå¤į": 5648,
      "çļĦåľºæĻ¯": 5649,
      "æģ°": 5650,
      "æĪĳå¸ĮæľĽ": 5651,
      "äººæķ°": 5652,
      "çļĦåĴĸåķ¡": 5653,
      "éĿŀå¸¸éĢĤåĲĪ": 5654,
      "æĿľ": 5655,
      "ç«Ł": 5656,
      "éĽķ": 5657,
      "éļĨ": 5658,
      "å¥½äºĨ": 5659,
      "èĥĸ": 5660,
      "æ¸ħæ¥ļ": 5661,
      "å°ıçº¢æľī": 5662,
      "åħ³éĹŃ": 5663,
      "çĽ¸åĬł": 5664,
      "çļĦåĲĮæĹ¶": 5665,
      "ä¸¤äºº": 5666,
      "åĩıèĤ¥": 5667,
      "çļĦæĢģåº¦": 5668,
      "å®¾è¯Ń": 5669,
      "èĤīç±»": 5670,
      "å¸ĿåĽ½": 5671,
      "éĤ»": 5672,
      "ç¾¤ä½ĵ": 5673,
      "æĮĸæİĺ": 5674,
      "çİ°çĬ¶": 5675,
      "ä¹Łåľ¨": 5676,
      "å¾Īå¿«": 5677,
      "çİ«": 5678,
      "éĢĽ": 5679,
      "ä¹ĺåĿĲ": 5680,
      "å°ĸ": 5681,
      "ä¸ĬäºĨ": 5682,
      "ç´§æĢ¥": 5683,
      "èī°": 5684,
      "åħ¼": 5685,
      "èĲ§": 5686,
      "è¿ĻæĦıåĳ³çĿĢ": 5687,
      "å½»": 5688,
      "åĴĮåģ¥åº·": 5689,
      "æİ¨è¿Ľ": 5690,
      "çĶľçĤ¹": 5691,
      "æĶ¹åıĺäºĨ": 5692,
      "è¿Ī": 5693,
      "ä¸ĭä¸Ģä¸ª": 5694,
      "æĬĬè¿Ļåı¥è¯Ŀ": 5695,
      "çļĦæīĭæľº": 5696,
      "èĤ©": 5697,
      "éĺ²æĻĴ": 5698,
      "æ¯ıä¸ªäººéĥ½åºĶè¯¥": 5699,
      "ä¿¡ä»°": 5700,
      "åĪ¶åº¦": 5701,
      "æĢ»çļĦ": 5702,
      "æīĢæľīçļĦå®ŀä½ĵ": 5703,
      "æŀģç«¯å¤©æ°Ķ": 5704,
      "çĶ¢": 5705,
      "ä½ĵç³»": 5706,
      "çļĦäººåĲį": 5707,
      "å¤§å¤§": 5708,
      "åŀĥåľ¾éĤ®ä»¶": 5709,
      "æĤ¬çĸĳ": 5710,
      "ç»ıåħ¸çļĦ": 5711,
      "çļĦç¬ĳè¯Ŀ": 5712,
      "çļĦæ¯ĶèµĽ": 5713,
      "çļĦå£°éŁ³": 5714,
      "åĩĮ": 5715,
      "æīĭå·¥": 5716,
      "æĢ»ç»ĵä¸Ģä¸ĭ": 5717,
      "çİĭæĺŁ": 5718,
      "åĩłä¸ªèĭ¹æŀľ": 5719,
      "åı¯ä»¥å¸®åĬ©æĪĳä»¬": 5720,
      "æĬ½åıĸåĩºæĸĩä¸Ń": 5721,
      "èĪŀè¹Ī": 5722,
      "æĬ½åıĸåĩºæĸĩä¸ŃæīĢæľīçļĦå®ŀä½ĵ": 5723,
      "åĩºçļĦ": 5724,
      "èĥ¡èĲ": 5725,
      "èĥ¡èĲĿåįľ": 5726,
      "æķĻåŃ¦": 5727,
      "è¿ĲåĬ¨åĳĺ": 5728,
      "å¸ħæ°Ķ": 5729,
      "è´¾": 5730,
      "è£¤åŃĲ": 5731,
      "åĪ¶æĪĲ": 5732,
      "èħĬ": 5733,
      "æĺ¯åĵª": 5734,
      "è¡Ģç®¡": 5735,
      "åķı": 5736,
      "æ¯ıä¸ªäººçļĦ": 5737,
      "æİ¨çĲĨåħ³ç³»": 5738,
      "çļĦè¿ĩç¨ĭä¸Ń": 5739,
      "æĥ§": 5740,
      "åĴĮä¸ªäºº": 5741,
      "ç½²": 5742,
      "ç§ĳå¹»çĶµå½±": 5743,
      "æĩĴ": 5744,
      "ä¸Ńç«ĭçŃĶæ¡Ī": 5745,
      "çļĦæľĢä½³": 5746,
      "æİ¨çĲĨåħ³ç³»åĪ¤æĸŃ": 5747,
      "çī¹æĢ§": 5748,
      "å°¿çĹħ": 5749,
      "çļĦåĲĮä¹īè¯į": 5750,
      "çļĦæµ·æ»©": 5751,
      "ä¸įç¡®å®ļ": 5752,
      "ä½ĵçİ°": 5753,
      "åĴĮæĶ¯æĮģ": 5754,
      "è¿Ļä¸ªæķħäºĭ": 5755,
      "ç»Ļå®ļçļĦåı¥åŃĲ": 5756,
      "çŃīåĽłç´ł": 5757,
      "è¿ģ": 5758,
      "å¾Īå¤ļäºº": 5759,
      "åİ¦": 5760,
      "æ¹¾": 5761,
      "èŃ¦å¯Ł": 5762,
      "çļĦæłĳ": 5763,
      "åı¯ä»¥çĶ¨äºİ": 5764,
      "éĻĮ": 5765,
      "éŁ§": 5766,
      "ä¸įåıĺ": 5767,
      "æ¡Īä¾ĭ": 5768,
      "æĬĢæľ¯çļĦåıĳå±ķ": 5769,
      "èĶ¬èıľåĴĮ": 5770,
      "äº«çĶ¨": 5771,
      "ç»ĻæĪĳæıĲä¾Ľä¸ĢäºĽ": 5772,
      "åīĳ": 5773,
      "æĹ¥çĽĬ": 5774,
      "çĪ±çļĦ": 5775,
      "åĩºèī²çļĦ": 5776,
      "æ²ĥ": 5777,
      "å¹²åĩĢ": 5778,
      "éĩįæĸ°åĨĻ": 5779,
      "åħĥéĴ±": 5780,
      "éħ·": 5781,
      "æ¯ıåĳ¨": 5782,
      "è¿Ļä¸ªäºº": 5783,
      "æīİ": 5784,
      "å¼ºåĮĸ": 5785,
      "äººå·¥æĻºèĥ½å°Ĩ": 5786,
      "ç»³": 5787,
      "éĥ½å¾Ī": 5788,
      "åľ°çĲĨ": 5789,
      "åĸ·": 5790,
      "è¯įè¯Ńæĺ¯ä»Ģä¹ĪæĦıæĢĿ": 5791,
      "å¾Ģå¾Ģ": 5792,
      "çļĦæĸĩåĮĸ": 5793,
      "çĲĨå¿µ": 5794,
      "åĪ¸": 5795,
      "æĸĩç«łä¸ŃæıĲåĪ°äºĨ": 5796,
      "æĶ¹åĨĻä¸º": 5797,
      "åĴĮåŃ¦ä¹ł": 5798,
      "æ±Ĺ": 5799,
      "å¤ĩåıĹ": 5800,
      "æĽ´å¥½åľ°äºĨè§£": 5801,
      "è¿ĳæĹ¥": 5802,
      "çļĦä¸īä¸ª": 5803,
      "ç´łé£Ł": 5804,
      "éĿ¢è¯ķ": 5805,
      "çļĦæ°ĶåĢĻ": 5806,
      "å®ļä½į": 5807,
      "æ¯Ķäºļ": 5808,
      "æİ¥è§¦": 5809,
      "ï¼ī<|": 5810,
      "è¡°": 5811,
      "å¥¶éħª": 5812,
      "èĺĳ": 5813,
      "æĪĳè¿ĺ": 5814,
      "ä¿®å¤į": 5815,
      "ä»Ģä¹Īæĺ¯äººå·¥æĻºèĥ½": 5816,
      "åī²": 5817,
      "åı¦ä¸Ģ": 5818,
      "æ°ĽåĽ´": 5819,
      "è¯¦ç»ĨçļĦ": 5820,
      "æĪª": 5821,
      "ç³ĸå°¿çĹħ": 5822,
      "å¯¼èĩ´äºĨ": 5823,
      "æłĳåı¶": 5824,
      "çļĦæķ°åŃĹ": 5825,
      "çļĦéĥ¨åĪĨ": 5826,
      "çļĦæĭ¼": 5827,
      "éļľç¢į": 5828,
      "æ¡¶": 5829,
      "åĲĥé¥Ń": 5830,
      "èĬĿå£«": 5831,
      "\"ãĢĤ": 5832,
      "è¿ľç¨ĭ": 5833,
      "çļĦåŃ£èĬĤ": 5834,
      "åħ´è¶£çĪ±å¥½": 5835,
      "æ»ĭ": 5836,
      "è·Į": 5837,
      "å²Ĺ": 5838,
      "ä¸ĭçļĦ": 5839,
      "æľ¨æĺŁ": 5840,
      "ç§Ĵ": 5841,
      "åįļå®¢": 5842,
      "çĶ¨éĢĶ": 5843,
      "çĵ¦": 5844,
      "çļĦæ¤": 5845,
      "æĺŁæĺŁ": 5846,
      "æķ°åŃĹåĮĸ": 5847,
      "æĮ¯": 5848,
      "å®´": 5849,
      "èµµ": 5850,
      "è±ĨèħĲ": 5851,
      "çļĦçĹħ": 5852,
      "èĺĳèıĩ": 5853,
      "æĭĴ": 5854,
      "åħ¨éĥ¨": 5855,
      "åı¯èĥ½çļĦ": 5856,
      "çĶµå½±è¯Ħè®º": 5857,
      "èĭ¹æŀľåħ¬åı¸": 5858,
      "çªģçł´": 5859,
      "æĢ»çļĦæĿ¥è¯´": 5860,
      "çļĦæ°Ķæģ¯": 5861,
      "199": 5862,
      "æ¶Į": 5863,
      "æ¿Ģåıĳ": 5864,
      "çļĦçĬ¶": 5865,
      "åĪĳ": 5866,
      "å¸¦çĿĢ": 5867,
      "åĿ¡": 5868,
      "å¹½é»ĺ": 5869,
      "ç¾İå¦Ļ": 5870,
      "å¼ºå¤§çļĦ": 5871,
      "ç»Ļå®ļä¸Ģæ®µæĸĩæľ¬": 5872,
      "åĴĮè¡Įä¸º": 5873,
      "ï¼ħ": 5874,
      "åĩıç¼ĵ": 5875,
      "æĶ¹éĿ©": 5876,
      "å£¶": 5877,
      "éĿŀå¸¸æľī": 5878,
      "ä»Ĭå¤©æĹ©ä¸Ĭ": 5879,
      "æŁĲç§į": 5880,
      "åĲ¸æĶ¶": 5881,
      "æľīäºĽäºº": 5882,
      "Ġ4": 5883,
      "ä½¿è®¡ç®Ĺæľº": 5884,
      "çİ«çĳ°": 5885,
      "å¿«éĢŁåıĳå±ķ": 5886,
      "éĴĵ": 5887,
      "å±ıå¹ķ": 5888,
      "çļĦæĬ¥": 5889,
      "æĸĩç«łä¸Ńåħ³äºİ": 5890,
      "ç½Ĺæĸ¯": 5891,
      "å±Ĥæ¬¡": 5892,
      "åĬłåħ¥ä¸ĢäºĽ": 5893,
      "å¯ĮåĲ«": 5894,
      "çĸĳéĹ®åı¥": 5895,
      "æĤ²ä¼¤": 5896,
      "ç³Ĭ": 5897,
      "Ġå°Ĩ": 5898,
      "æĪĳå¯¹": 5899,
      "ç©ºæ°Ķæ±¡æŁĵ": 5900,
      "æ¸©å®¤æ°Ķä½ĵæİĴæĶ¾": 5901,
      "æ¡Ĩ": 5902,
      "ä¸»æ¼Ķ": 5903,
      "éĿŀå¸¸æľīè¶£": 5904,
      "æķ°æį®åĪĨæŀĲ": 5905,
      "å¤ıå¨ģ": 5906,
      "éĥİ": 5907,
      "èĻ¾": 5908,
      "åı¯ä»¥ä¸º": 5909,
      "éĻµ": 5910,
      "åĸľæ¬¢åľ¨": 5911,
      "ä¸ĩçī©": 5912,
      "åľ°ä½į": 5913,
      "äººå·¥æĻºèĥ½åºĶçĶ¨": 5914,
      "å¤ıå¨ģå¤·": 5915,
      "èµ°äºĨ": 5916,
      "æµ·æµª": 5917,
      "çļĦä¸Ńå¿ĥ": 5918,
      "ä»Ĭå¤©çļĦ": 5919,
      "éĢīæĭ©éĢĤåĲĪ": 5920,
      "æĦŁåĴĮ": 5921,
      "ç§¦": 5922,
      "è¨Ī": 5923,
      "ç§ĳåŃ¦å®¶ä»¬": 5924,
      "ä¸ĬåįĪ": 5925,
      "ä¸»æĹ¨": 5926,
      "åĪĽéĢłä¸Ģä¸ª": 5927,
      "åĨ²çªģ": 5928,
      "çļĦå¸®åĬ©": 5929,
      "åĨĽäºĭ": 5930,
      "om": 5931,
      "è¯·æĤ¨": 5932,
      "å¼Ģè½¦": 5933,
      "èĲ½åı¶": 5934,
      "å±ħä½ı": 5935,
      "ç¿ħ": 5936,
      "äºĳè®¡ç®Ĺ": 5937,
      "æĸĩæľ¬åĨħå®¹": 5938,
      "éŁ¿": 5939,
      "è®²è¿°äºĨä¸Ģ": 5940,
      "çļĦç¾İæĻ¯": 5941,
      "å¿ĥèĦıçĹħ": 5942,
      "æĪĳä»¬åı¯ä»¥çĶ¨": 5943,
      "æľīå¤ļå°ĳ": 5944,
      "åľ¨è¿Ļä¸ªåı¥åŃĲä¸Ń": 5945,
      "æŀ«": 5946,
      "å¦Ĥä½ķåĪ¶ä½ľ": 5947,
      "èĢĮæĪĲ": 5948,
      "åı¯èĥ½éľĢè¦ģ": 5949,
      "å®¢æľį": 5950,
      "éĹ»åĲį": 5951,
      "çļĦæĶ¿": 5952,
      "æŁ¿": 5953,
      "ä¸ĸçķĮä¸Ĭ": 5954,
      "åı¯èĥ½ä¼ļå¯¼èĩ´": 5955,
      "éĩįè¿°": 5956,
      "æĤ¨ä¹Łåı¯ä»¥": 5957,
      "èĪŁ": 5958,
      "æĦŁåĪ°å¾Ī": 5959,
      "æıĲé«ĺäºĨ": 5960,
      "æ¡ĮåŃĲ": 5961,
      "ç½Ĺé©¬": 5962,
      "æ°Ķè´¨": 5963,
      "å·²çŁ¥": 5964,
      "å¥³åŃĲ": 5965,
      "æĢĴ": 5966,
      "æĺŁéĻħ": 5967,
      "çļĦæĻ®": 5968,
      "Ġ1": 5969,
      "æıĲåıĸä¸Ģä¸ĭ": 5970,
      "çĶ·äºº": 5971,
      "ä¸Ńæī¾åĪ°": 5972,
      "æııåĨĻ": 5973,
      "åı¯ä»¥æıĲä¾Ľ": 5974,
      "æľ¯è¯Ń": 5975,
      "çĸ¾çĹħçļĦ": 5976,
      "ä¸ĸçķĮåĲĦåľ°": 5977,
      "åĨĮ": 5978,
      "ãĢĤâĢĿ\\": 5979,
      "æľºåĻ¨åŃ¦ä¹łæĺ¯ä¸Ģç§į": 5980,
      "éĹ¹": 5981,
      "åĲİæŀľ": 5982,
      "æĸ°æĬĢæľ¯": 5983,
      "çĶ³è¯·": 5984,
      "å¹¶ä½¿çĶ¨": 5985,
      "çıįæĥľ": 5986,
      "åİ»çľĭ": 5987,
      "âĢĺ": 5988,
      "æľīæ°§": 5989,
      "ä¹ĭä¸Ń": 5990,
      "çĽ¸ä¼¼åº¦": 5991,
      "çĩ¥": 5992,
      "éĤ£è¯·éĹ®": 5993,
      "çļĦèĭ¹æŀľ": 5994,
      "çŃīäºİ": 5995,
      "æĹĭå¾ĭ": 5996,
      "âĢĻ": 5997,
      "æ´¾å¯¹": 5998,
      "å¾ŀ": 5999,
      "å¹¿éĺĶ": 6000,
      "ä½Ĩä¹Ł": 6001,
      "è¡¨çİ°åĩº": 6002,
      "ä¸ŃçļĦå®ŀä½ĵ": 6003,
      "åĴĮçĦ¦èĻĳ": 6004,
      "å¸®ä½ł": 6005,
      "AP": 6006,
      "ce": 6007,
      "ä¼į": 6008,
      "ç²¾åĬĽ": 6009,
      "ä¿ĿæĮģèº«ä½ĵåģ¥åº·": 6010,
      "æ±īåł¡": 6011,
      "åħ¬å¼ı": 6012,
      "ç»ĦæĪĲéĥ¨åĪĨ": 6013,
      "åħįè´¹": 6014,
      "çİ¯ä¿ĿéĹ®é¢ĺ": 6015,
      "åĴĮæĪĳ": 6016,
      "ç®ĢçŁŃçļĦæĳĺè¦ģ": 6017,
      "æĵļ": 6018,
      "åŃĹç¬¦ä¸²": 6019,
      "åħ½": 6020,
      "åİŁå§ĭåı¥åŃĲ": 6021,
      "æĶ¿æ²»": 6022,
      "æĺ¯ä¸Ģå®¶": 6023,
      "åłª": 6024,
      "çļĦæĢ§èĥ½": 6025,
      "è¿Ļä¹Ī": 6026,
      "ç¼ĸç¨ĭè¯Ńè¨Ģ": 6027,
      "ä½Ĩåľ¨": 6028,
      "æĹ©æľŁ": 6029,
      "å°Ĭæķ¬": 6030,
      "éĻªä¼´": 6031,
      "æľĢéĢĤåĲĪ": 6032,
      "çļĦæķĻèĤ²": 6033,
      "æĪĲä¸ºä¸Ģä¸ª": 6034,
      "çļĦåĬĽéĩı": 6035,
      "åĩºçīĪ": 6036,
      "å¤Ħäºİ": 6037,
      "æĪĳæĺ¯": 6038,
      "åĸĿåĴĸåķ¡": 6039,
      "ä¹ĭä¸Ģæĺ¯": 6040,
      "å±Ĭ": 6041,
      "æľ¬èº«": 6042,
      "åıĻ": 6043,
      "å¹¶ä¸įæĺ¯": 6044,
      "æī©å±ķ": 6045,
      "æļĳ": 6046,
      "è¯·å°Ĩ": 6047,
      "è¿Ļæĺ¯åĽłä¸º": 6048,
      "åį±æľº": 6049,
      "åĴĮèĶ¬èıľ": 6050,
      "æĺİçĻ½äºĨ": 6051,
      "å¤´èĦĳ": 6052,
      "çĶŁæĪĲä¸Ģä¸ªæłĩé¢ĺ": 6053,
      "åĲĪå¹¶æĪĲä¸Ģä¸ª": 6054,
      "åĬłå·¥": 6055,
      "ä»¥åħ¶": 6056,
      "èĮ«": 6057,
      "æĺ¯ä¸į": 6058,
      "èį¯çī©çłĶåıĳ": 6059,
      "æ»¨": 6060,
      "éĢļè¿ĩå¯¹": 6061,
      "çļĦéĩįçĤ¹": 6062,
      "è¿Ļä¸ªåŁİå¸Ĥ": 6063,
      "å©´åĦ¿": 6064,
      "å¦ĤæŀľæĤ¨æĥ³": 6065,
      "å¤įæĿĤçļĦ": 6066,
      "ä½łçŁ¥éģĵ": 6067,
      "åħģè®¸": 6068,
      "å¾®ç¬ĳ": 6069,
      "å®ŀéĻħä¸Ĭ": 6070,
      "æĿİåįİ": 6071,
      "æĪ¿å±ĭ": 6072,
      "æķĻå¸Ī": 6073,
      "åįıä½ľ": 6074,
      "åĢ¡": 6075,
      "æ¯Ķçī¹": 6076,
      "åģļä¸ĢäºĽ": 6077,
      "éĢłåŀĭ": 6078,
      "æĺı": 6079,
      "èĢĮå¼Ĥ": 6080,
      "çİ°åľº": 6081,
      "ä»İæĸĩç«łä¸Ń": 6082,
      "åıĹåĪ°äºĨ": 6083,
      "æĪĲåĬŁåľ°": 6084,
      "è¿ĩäºİ": 6085,
      "é½¿": 6086,
      "çļĦæ¡": 6087,
      "å¾Īå¤§çļĦ": 6088,
      "çĭ±": 6089,
      "è®¡ç®Ĺæľºç¨ĭåºı": 6090,
      "æ¶ĪéĻ¤": 6091,
      "å¯¦": 6092,
      "åĲĪåĲĮ": 6093,
      "äºīè®®": 6094,
      "è¿ĻäºĽä¿¡æģ¯": 6095,
      "æĿ¥åĪ°": 6096,
      "æ£ĴäºĨ": 6097,
      "æŀļ": 6098,
      "æĤłä¹ħ": 6099,
      "å¤ªå¤ļ": 6100,
      "æ¿ĢçĥĪ": 6101,
      "æĪ¿åŃĲ": 6102,
      "è¯·æ³¨æĦı": 6103,
      "çµ±": 6104,
      "éģµå¾ª": 6105,
      "æĥĳ": 6106,
      "éĢĶå¾Ħ": 6107,
      "æ¡Īä»¶": 6108,
      "å²ģæľĪ": 6109,
      "ç»Ļå®ļä¸Ģä¸ªåı¥åŃĲ": 6110,
      "çļĦç©ºæ°Ķ": 6111,
      "åĨĻä¸Ģä¸ªæłĩé¢ĺ": 6112,
      "å£³": 6113,
      "çĽ¸åĲĮçļĦ": 6114,
      "èı²å°Ķ": 6115,
      "æº¯": 6116,
      "åı¯ä»¥å¾ĹåĪ°": 6117,
      "æľįåĬ¡åĳĺ": 6118,
      "æĸ¹éĿ¢çļĦåºĶçĶ¨": 6119,
      "å¤ªæ£ĴäºĨ": 6120,
      "ä»İä»¥ä¸ĭæĸĩæľ¬": 6121,
      "äºĨä¸Ģåľº": 6122,
      "éĢļå¸¸æĺ¯": 6123,
      "æ°ĳæĹı": 6124,
      "çĶµåŃĲåķĨåĬ¡": 6125,
      "åħ±åĲĮåĬªåĬĽ": 6126,
      "ç«ĭåį³": 6127,
      "æĿİåĽĽ": 6128,
      "çłĶç©¶äººåĳĺ": 6129,
      "çĻ¾å¹´": 6130,
      "æĢİä¹Īåģļ": 6131,
      "èĬĤçº¦èĥ½æºĲ": 6132,
      "æµĭéĩı": 6133,
      "æĶ¿åºľåĴĮ": 6134,
      "æķ°æį®è¿Ľè¡Į": 6135,
      "åĿļæŀľ": 6136,
      "ãĢĳ": 6137,
      "éľĢè¦ģæ³¨æĦıçļĦæĺ¯": 6138,
      "çļĦæľºä¼ļ": 6139,
      "éĩįæĸ°ç¼ĸåĨĻ": 6140,
      "é«ĺæ¸©": 6141,
      "ãĢĲ": 6142,
      "è®©äººæĦŁåĪ°": 6143,
      "çļĦçĭ¬": 6144,
      "ä½łåĸľæ¬¢": 6145,
      "æ°Ķæģ¯": 6146,
      "ä¸įèī¯": 6147,
      "èĩ³åħ³éĩįè¦ģ": 6148,
      "å®īåħ¨åĴĮ": 6149,
      "åĨ°å·Ŀ": 6150,
      "å¹¼": 6151,
      "åĬŀæ³ķ": 6152,
      "æľªæĿ¥çļĦåıĳå±ķ": 6153,
      "çĲĨæĥ³": 6154,
      "æł¼å¼ı": 6155,
      "åİŁåŃĲ": 6156,
      "èĪªçıŃ": 6157,
      "åĴĮå°ı": 6158,
      "çļĦåĬŁèĥ½": 6159,
      "ä»ĬæĻļ": 6160,
      "å¤ļå½©": 6161,
      "åģļä¸Ģä¸ª": 6162,
      "è¨Ń": 6163,
      "åįıè®®": 6164,
      "å¼ķäººåħ¥": 6165,
      "çļĦçł´": 6166,
      "...": 6167,
      "çİ°ä»£ç¤¾ä¼ļ": 6168,
      "è´¢å¯Į": 6169,
      "æ°£": 6170,
      "åľŁè±Ĩ": 6171,
      "ä»Ĭå¤©æĺ¯": 6172,
      "åŃ¦ä¹łæĸ°": 6173,
      "éªĹ": 6174,
      "çľŁæŃ£çļĦ": 6175,
      "åı¬": 6176,
      "èĨľ": 6177,
      "æįŁå¤±": 6178,
      "æ°Ľ": 6179,
      "æķ¸": 6180,
      "éĶ¦": 6181,
      "|>âĢľ": 6182,
      "æĭ¯": 6183,
      "çľŁå¥½": 6184,
      "çļĦçī¹å¾ģ": 6185,
      "éĵģå¡Ķ": 6186,
      "æģ¨": 6187,
      "æłĳæľ¨": 6188,
      "çļĦç®ĢçŁŃ": 6189,
      "æł¹æį®æıĲä¾ĽçļĦæĸĩæľ¬": 6190,
      "å¼ķäººåħ¥èĥľ": 6191,
      "æľŁæľĽ": 6192,
      "or": 6193,
      "èĥ½å¤Łåľ¨": 6194,
      "æĻĭ": 6195,
      "è¯Ńå¢ĥ": 6196,
      "å¹³åĿĩåĪĨç»Ļ": 6197,
      "çļĦä»£è¡¨": 6198,
      "æŃ£ä¼ł": 6199,
      "åĩıåİĭ": 6200,
      "åıĺéĩı": 6201,
      "æĤ¨å¥½": 6202,
      "èĥĨ": 6203,
      "åĬłå¯Ĩ": 6204,
      "åĽłä¸ºä»ĸ": 6205,
      "çģ£": 6206,
      "åĺ´": 6207,
      "æĿĥåĪ©": 6208,
      "åºŁå¼ĥçī©": 6209,
      "å»ºéĢł": 6210,
      "ä¸įä»ħä»ħ": 6211,
      "è®Ĭ": 6212,
      "åĩłç§į": 6213,
      "å¥¹åľ¨": 6214,
      "çºªå¿µ": 6215,
      "çıŃçīĻ": 6216,
      "è¿ĻäºĽæĬĢæľ¯": 6217,
      "é«ĺè´¨éĩı": 6218,
      "æĪĺçķ¥": 6219,
      "æĽ´é«ĺæķĪ": 6220,
      "è¥¿çıŃçīĻ": 6221,
      "æĦıå¤ĸ": 6222,
      "ç§ĭåĨ¬": 6223,
      "è¿½éĢĲ": 6224,
      "çļĦæŃ¥éª¤": 6225,
      "æĪĳæĺ¯ä¸Ģä¸ª": 6226,
      "åĳĪçİ°åĩº": 6227,
      "æķħäºĭæĥħèĬĤ": 6228,
      "å¾Īæľīè¶£": 6229,
      "å¾ĴæŃ¥": 6230,
      "çļĦæĲ": 6231,
      "ä½łæľĢåĸľæ¬¢": 6232,
      "ä¸Ģå®ļçļĦ": 6233,
      "å®ŀæľ¨": 6234,
      "çĽĸèĮ¨": 6235,
      "å½ĵæĪĳä»¬": 6236,
      "éĢļçŁ¥": 6237,
      "ä¸ºä¸Ģåı¥è¯Ŀ": 6238,
      "å½±éŁ¿": 6239,
      "æĵ¦": 6240,
      "è¡Įé©¶": 6241,
      "æľīæīĢä¸įåĲĮ": 6242,
      "åĲ¦å®ļ": 6243,
      "å»·": 6244,
      "ä»İä¸Ń": 6245,
      "ä¼Łå¤§çļĦ": 6246,
      "éĢģç»Ļ": 6247,
      "Jo": 6248,
      "å¤ļåĲĥ": 6249,
      "å§Ĩæĸ¯": 6250,
      "æĻĵ": 6251,
      "ç»ıçĲĨ": 6252,
      "Ġä»ĸ": 6253,
      "èªīä¸º": 6254,
      "æĪĳä¸ºæĤ¨": 6255,
      "è¯¥çĶµå½±": 6256,
      "æĿ¥åĩıå°ĳ": 6257,
      "èµł": 6258,
      "æĺĵè¯»": 6259,
      "è¯·éĹ®æĤ¨": 6260,
      "ä¹Ļ": 6261,
      "ä¸įçĶ¨": 6262,
      "æĪĲçĨŁ": 6263,
      "æ²¡æľīæıĲä¾Ľ": 6264,
      "æĭ¯æķĳ": 6265,
      "21": 6266,
      "åħĦ": 6267,
      "å»ºçŃĳçī©": 6268,
      "çĪ¶æ¯į": 6269,
      "çī©æµģ": 6270,
      "è¦ģåİ»": 6271,
      "ç³Łç³ķ": 6272,
      "äººéĻħ": 6273,
      "å¤ĸæĺŁ": 6274,
      "è¿ŀè´¯": 6275,
      "è»": 6276,
      "åĿĽ": 6277,
      "æĮº": 6278,
      "çĶ·æĢ§": 6279,
      "äººå·¥æĻºèĥ½å¯¹": 6280,
      "åĩłä¹İ": 6281,
      "æĴ°åĨĻ": 6282,
      "å¤ļæ¬¡": 6283,
      "æĺİæ²»": 6284,
      "ç¬¬ä¸Ģæ¬¡": 6285,
      "æľºåĻ¨åŃ¦ä¹łåĴĮ": 6286,
      "çī¹å®ļçļĦ": 6287,
      "çļĦæķ°åŃ¦": 6288,
      "æĪĳåı¯ä»¥ä¸ºæĤ¨": 6289,
      "åıĺå¾Ĺè¶ĬæĿ¥è¶Ĭ": 6290,
      "éĿ¢ä¸´çĿĢ": 6291,
      "æ·±è¿ľçļĦå½±åĵį": 6292,
      "ä¸ĸçķĮä¸ĬæľĢé«ĺçļĦå±±å³°": 6293,
      "åħ¨çĲĥæ°ĶåĢĻåıĺåĮĸ": 6294,
      "éĻĮçĶŁ": 6295,
      "åŃ¸ç¿Ĵ": 6296,
      "ä¿ĿæĬ¤åľ°çĲĥ": 6297,
      "èº«ä¸Ĭ": 6298,
      "è¿Ļæľ¬å°ıè¯´": 6299,
      "çķ¶": 6300,
      "ç§ĳæĬĢåħ¬åı¸": 6301,
      "æĺ¥èĬĤ": 6302,
      "éĢļå¸¸ä¼ļ": 6303,
      "ç¿©": 6304,
      "çļĦéĺ³åħī": 6305,
      "æĬĢè¡ĵ": 6306,
      "è¡¥åħħ": 6307,
      "ç±»ä¼¼äºİ": 6308,
      "æĽ´åħ·": 6309,
      "åħ¶å®ŀ": 6310,
      "èµ¢å¾ĹäºĨ": 6311,
      "¬éĹ´": 6312,
      "å¤ļåħĥ": 6313,
      "æ°§æ°Ķ": 6314,
      "å¾Ĳ": 6315,
      "çĽ¸æ¯Ķ": 6316,
      "ç®ĢåİĨ": 6317,
      "è¯Ī": 6318,
      "çļĦæ©": 6319,
      "é«ĺéĢŁ": 6320,
      "æĪĺæĸĹ": 6321,
      "è¾ĥä¸º": 6322,
      "éĿĴæĺ¥": 6323,
      "ä»¥åĨħ": 6324,
      "åģļä»Ģä¹Ī": 6325,
      "ä½łæĥ³": 6326,
      "åŃĺåľ¨åĵªäºĽ": 6327,
      "ç©¿ä¸Ĭ": 6328,
      "éĩįè¦ģçļĦä½ľçĶ¨": 6329,
      "åĭĻ": 6330,
      "åįıè°ĥ": 6331,
      "åĲĪæ³ķ": 6332,
      "åħ¶ä¸Ńä¸Ģä¸ª": 6333,
      "åĲįåı«": 6334,
      "ç»Ļå®ļæĸĩæľ¬": 6335,
      "28": 6336,
      "åĬłçĥŃ": 6337,
      "å¹³éĿĻ": 6338,
      "æľªæĿ¥ç§ĳæĬĢ": 6339,
      "ä»ĸæĬĬ": 6340,
      "ç§ĺå¯Ĩ": 6341,
      "æĤ¨åı¯ä»¥èĢĥèĻĳ": 6342,
      "æĭ¥åłµ": 6343,
      "èĭį": 6344,
      "æĪĳçİ°åľ¨": 6345,
      "æ¨¡æĭŁäººç±»æĻºèĥ½": 6346,
      "çĶŁæĪĲä¸Ģä»½": 6347,
      "å¯¹ä»¥ä¸ĭåı¥åŃĲ": 6348,
      "éŁ³ä¹Ĳä¼ļ": 6349,
      "æĪĳåĸľæ¬¢åĲĥ": 6350,
      "å¹¶çĶ¨": 6351,
      "è°ĥæĸĻ": 6352,
      "çļĦä¼ĺåĬ¿": 6353,
      "æĢ»ç»ĵåĩº": 6354,
      "å¦Ĥä½ķæıĲé«ĺ": 6355,
      "åıĤæķ°": 6356,
      "çĸ¼": 6357,
      "åĴĮçİ¯å¢ĥ": 6358,
      "éĺ¿çĶĺæŃ£ä¼ł": 6359,
      "çļĦä¸ľè¥¿": 6360,
      "è´·": 6361,
      "èµ·åºĬ": 6362,
      "çľĭçĿĢ": 6363,
      "ï¼ĳ": 6364,
      "éĢĻåĢĭ": 6365,
      "ä¸ºäººç±»": 6366,
      "çļĦæķ°æį®éĽĨ": 6367,
      "çļĦæ³¨": 6368,
      "å§ĭç»Ī": 6369,
      "åħĭæĸ¯": 6370,
      "çĲĨçĶ±": 6371,
      "çĥĺ": 6372,
      "æĽ´åĩĨç¡®åľ°": 6373,
      "è¯ŀ": 6374,
      "ä¸įå¤Ł": 6375,
      "1000": 6376,
      "å¹¿åľº": 6377,
      "èº«æĿĲ": 6378,
      "çļĦèĩªçĦ¶": 6379,
      "éļ¾é¢ĺ": 6380,
      "æĪĳçļĦæľĭåıĭ": 6381,
      "çļĦæ¸©åº¦": 6382,
      "å¿į": 6383,
      "åĮĨ": 6384,
      "ä½łåľ¨": 6385,
      "æĪ·å¤ĸè¿ĲåĬ¨": 6386,
      "çļĦçģ«": 6387,
      "çļĦæĻ¯èī²": 6388,
      "åĲĲ": 6389,
      "çļĦäººçī©": 6390,
      "æĹłè®ºæĺ¯": 6391,
      "çĶŁäº§åĬĽ": 6392,
      "çļĦæĬķèµĦ": 6393,
      "å°±èĥ½": 6394,
      "åĲ¾": 6395,
      "è¡¨è¾¾æĸ¹å¼ı": 6396,
      "æµ·æĭĶ": 6397,
      "è¯·ç»Ļåĩº": 6398,
      "åģļæ³ķ": 6399
    },
    "merges": [
      [
        "ä",
        "¸"
      ],
      [
        "ï",
        "¼"
      ],
      [
        "ã",
        "Ģ"
      ],
      [
        "ç",
        "ļ"
      ],
      [
        "çļ",
        "Ħ"
      ],
      [
        "ï¼",
        "Į"
      ],
      [
        "ãĢ",
        "Ĥ"
      ],
      [
        "ä",
        "º"
      ],
      [
        "ä",
        "»"
      ],
      [
        "å",
        "ı"
      ],
      [
        "æ",
        "ľ"
      ],
      [
        "i",
        "m"
      ],
      [
        "|",
        ">"
      ],
      [
        "<",
        "|"
      ],
      [
        "è",
        "¿"
      ],
      [
        "æ",
        "Ī"
      ],
      [
        "å",
        "ħ"
      ],
      [
        "è",
        "¯"
      ],
      [
        "å",
        "¤"
      ],
      [
        "æ",
        "ĸ"
      ],
      [
        "ä¸",
        "Ģ"
      ],
      [
        "ä",
        "½"
      ],
      [
        "æ",
        "ĺ"
      ],
      [
        "ç",
        "Ķ"
      ],
      [
        "å",
        "®"
      ],
      [
        "å",
        "Ī"
      ],
      [
        "å",
        "ľ"
      ],
      [
        "å",
        "Ĵ"
      ],
      [
        "å",
        "Ĳ"
      ],
      [
        "åĴ",
        "Į"
      ],
      [
        "å",
        "Ĭ"
      ],
      [
        "ç",
        "»"
      ],
      [
        "ä",
        "¹"
      ],
      [
        "æĺ",
        "¯"
      ],
      [
        "a",
        "r"
      ],
      [
        "e",
        "n"
      ],
      [
        "s",
        "t"
      ],
      [
        "ar",
        "t"
      ],
      [
        "en",
        "d"
      ],
      [
        "st",
        "art"
      ],
      [
        "å",
        "Ń"
      ],
      [
        "å",
        "°"
      ],
      [
        "ä¸",
        "ª"
      ],
      [
        "ä»",
        "¥"
      ],
      [
        "ãĢ",
        "ģ"
      ],
      [
        "æĪ",
        "ĳ"
      ],
      [
        "è",
        "®"
      ],
      [
        "ãĢĤ",
        "<|"
      ],
      [
        "åľ",
        "¨"
      ],
      [
        "äº",
        "º"
      ],
      [
        "ĥ",
        "½"
      ],
      [
        "æľ",
        "ī"
      ],
      [
        "æ",
        "Ĺ"
      ],
      [
        "Ġ",
        "<|"
      ],
      [
        "æĸ",
        "ĩ"
      ],
      [
        "åı",
        "¯"
      ],
      [
        "å",
        "Ľ"
      ],
      [
        "ï¼",
        "ļ"
      ],
      [
        "é",
        "ĩ"
      ],
      [
        "å",
        "º"
      ],
      [
        "äº",
        "Ĩ"
      ],
      [
        "ä¸",
        "Ń"
      ],
      [
        "æ",
        "Ŀ"
      ],
      [
        "è¿",
        "Ļ"
      ],
      [
        "å",
        "¸"
      ],
      [
        "å",
        "ĩ"
      ],
      [
        "å",
        "¹"
      ],
      [
        "é",
        "Ģ"
      ],
      [
        "è",
        "¡"
      ],
      [
        "è",
        "ĥ½"
      ],
      [
        "ä",
        "¼"
      ],
      [
        "çļĦ",
        "æ"
      ],
      [
        "å",
        "·"
      ],
      [
        "é",
        "¢"
      ],
      [
        "è",
        "¦"
      ],
      [
        "å",
        "Ĩ"
      ],
      [
        "å",
        "Į"
      ],
      [
        "è¦",
        "ģ"
      ],
      [
        "å",
        "¾"
      ],
      [
        "å",
        "¥"
      ],
      [
        "ä¸",
        "º"
      ],
      [
        "ç",
        "ī"
      ],
      [
        "é",
        "Ĺ"
      ],
      [
        "ç",
        "İ"
      ],
      [
        "æ",
        "ı"
      ],
      [
        "ç",
        "§"
      ],
      [
        "å",
        "¯"
      ],
      [
        "è",
        "§"
      ],
      [
        "å",
        "½"
      ],
      [
        "çĶ",
        "¨"
      ],
      [
        "å",
        "į"
      ],
      [
        "å",
        "¼"
      ],
      [
        "ç",
        "Ń"
      ],
      [
        "æ",
        "ŀ"
      ],
      [
        "ä¸",
        "į"
      ],
      [
        "çĶ",
        "Ł"
      ],
      [
        "åı¯",
        "ä»¥"
      ],
      [
        "æ",
        "ī"
      ],
      [
        "æ",
        "ķ"
      ],
      [
        "æ",
        "Ģ"
      ],
      [
        "é",
        "Ŀ"
      ],
      [
        "æ",
        "Ń"
      ],
      [
        "ä»",
        "¬"
      ],
      [
        "æ",
        "Ĭ"
      ],
      [
        "ä",
        "¿"
      ],
      [
        "æ",
        "ł"
      ],
      [
        "è",
        "Ģ"
      ],
      [
        "â",
        "Ģ"
      ],
      [
        "ä¸",
        "ĭ"
      ],
      [
        "æ",
        "³"
      ],
      [
        "æı",
        "Ĳ"
      ],
      [
        "ä¸Ģ",
        "ä¸ª"
      ],
      [
        "ç",
        "Ľ"
      ],
      [
        "æĿ",
        "¥"
      ],
      [
        "æ",
        "Ļ"
      ],
      [
        "æĪ",
        "Ĳ"
      ],
      [
        "å",
        "İ"
      ],
      [
        "å",
        "ĵ"
      ],
      [
        "æ",
        "°"
      ],
      [
        "¦",
        "Ĥ"
      ],
      [
        "è",
        "ĩ"
      ],
      [
        "æ",
        "Ľ"
      ],
      [
        "åŃ",
        "Ĳ"
      ],
      [
        "ç",
        "«"
      ],
      [
        "æ",
        "Ħ"
      ],
      [
        "åĩ",
        "º"
      ],
      [
        "æ",
        "ĥ"
      ],
      [
        "ç",
        "Ĳ"
      ],
      [
        "è¡",
        "Į"
      ],
      [
        "å",
        "ĳ"
      ],
      [
        "æ",
        "ĭ"
      ],
      [
        "å",
        "¦Ĥ"
      ],
      [
        "åŃ",
        "¦"
      ],
      [
        "åĪ",
        "°"
      ],
      [
        "ä»",
        "ĸ"
      ],
      [
        "ä",
        "¾"
      ],
      [
        "å",
        "¿"
      ],
      [
        "æľ",
        "¬"
      ],
      [
        "æ",
        "İ"
      ],
      [
        "ä½",
        "ł"
      ],
      [
        "é¢",
        "ĺ"
      ],
      [
        "æ",
        "Ķ"
      ],
      [
        "æĹ",
        "¶"
      ],
      [
        "äº",
        "İ"
      ],
      [
        "ä¸",
        "Ĭ"
      ],
      [
        "åľ",
        "°"
      ],
      [
        "å¥",
        "½"
      ],
      [
        "æ",
        "µ"
      ],
      [
        "æĽ",
        "´"
      ],
      [
        "çŃ",
        "ī"
      ],
      [
        "æ",
        "į"
      ],
      [
        "ï¼",
        "Ł"
      ],
      [
        "è",
        "´"
      ],
      [
        "å¯",
        "¹"
      ],
      [
        "å",
        "±"
      ],
      [
        "å¤",
        "§"
      ],
      [
        "ç",
        "º"
      ],
      [
        "å¤",
        "ļ"
      ],
      [
        "æĸ",
        "¹"
      ],
      [
        "åħ",
        "³"
      ],
      [
        "ç",
        "®"
      ],
      [
        "æ",
        "¯"
      ],
      [
        "å·",
        "¥"
      ],
      [
        "è",
        "µ"
      ],
      [
        "äº",
        "Ľ"
      ],
      [
        "èĩ",
        "ª"
      ],
      [
        "è",
        "¾"
      ],
      [
        "å¤",
        "©"
      ],
      [
        "å°",
        "ı"
      ],
      [
        "ä¼",
        "ļ"
      ],
      [
        "åı",
        "¥"
      ],
      [
        "åĬ",
        "¨"
      ],
      [
        "é",
        "£"
      ],
      [
        "ç»",
        "Ļ"
      ],
      [
        "åĪ",
        "Ĩ"
      ],
      [
        "çī",
        "©"
      ],
      [
        "ä½",
        "ľ"
      ],
      [
        "åı",
        "ĳ"
      ],
      [
        "å®",
        "ļ"
      ],
      [
        "æ",
        "¬"
      ],
      [
        "æ",
        "´"
      ],
      [
        "ç",
        "±"
      ],
      [
        "æ",
        "Ĥ"
      ],
      [
        "ç«",
        "ł"
      ],
      [
        "åħ",
        "¶"
      ],
      [
        "éĿ",
        "¢"
      ],
      [
        "æ",
        "Į"
      ],
      [
        "å¹",
        "¶"
      ],
      [
        "æŀ",
        "ľ"
      ],
      [
        "æĸĩ",
        "ç«ł"
      ],
      [
        "æľ",
        "Ģ"
      ],
      [
        "é",
        "ľ"
      ],
      [
        "æ",
        "¸"
      ],
      [
        "æį",
        "®"
      ],
      [
        "å",
        "Ł"
      ],
      [
        "æ³",
        "ķ"
      ],
      [
        "å°",
        "Ĩ"
      ],
      [
        "æĸ",
        "°"
      ],
      [
        "éĹ",
        "®"
      ],
      [
        "è¿",
        "Ľ"
      ],
      [
        "é",
        "Ļ"
      ],
      [
        "ç",
        "Ĥ"
      ],
      [
        "çİ",
        "°"
      ],
      [
        "å",
        "ģ"
      ],
      [
        "åĬ",
        "ł"
      ],
      [
        "å®",
        "ĥ"
      ],
      [
        "çļĦ",
        "ç"
      ],
      [
        "æ",
        "²"
      ],
      [
        "ä½",
        "ĵ"
      ],
      [
        "è¯",
        "Ń"
      ],
      [
        "é",
        "Ķ"
      ],
      [
        "ç",
        "Ħ"
      ],
      [
        "è",
        "ī"
      ],
      [
        "ä½",
        "¿"
      ],
      [
        "ä¿",
        "Ŀ"
      ],
      [
        "è¯",
        "·"
      ],
      [
        "ç±",
        "»"
      ],
      [
        "è¿",
        "ĩ"
      ],
      [
        "æĪĳ",
        "ä»¬"
      ],
      [
        "åº",
        "Ķ"
      ],
      [
        "å½",
        "±"
      ],
      [
        "éĩ",
        "į"
      ],
      [
        "ç§",
        "į"
      ],
      [
        "é",
        "ģ"
      ],
      [
        "ç",
        "ľ"
      ],
      [
        "çĲ",
        "Ĩ"
      ],
      [
        "æĪ",
        "ĸ"
      ],
      [
        "é",
        "«"
      ],
      [
        "åĬ",
        "Ľ"
      ],
      [
        "éľ",
        "Ģ"
      ],
      [
        "æĺ",
        "İ"
      ],
      [
        "æĻ",
        "º"
      ],
      [
        "æ",
        "±"
      ],
      [
        "è",
        "½"
      ],
      [
        "âĢ",
        "Ŀ"
      ],
      [
        "è",
        "¶"
      ],
      [
        "é",
        "ĺ"
      ],
      [
        "å®",
        "¶"
      ],
      [
        "åĲ",
        "Į"
      ],
      [
        "é«",
        "ĺ"
      ],
      [
        "ä¸",
        "»"
      ],
      [
        "æľ",
        "º"
      ],
      [
        "æĸĩ",
        "æľ¬"
      ],
      [
        "åĮ",
        "ĸ"
      ],
      [
        "å¸",
        "¸"
      ],
      [
        "çĶ",
        "µ"
      ],
      [
        "æĤ",
        "¨"
      ],
      [
        "çĦ",
        "¶"
      ],
      [
        "âĢ",
        "ľ"
      ],
      [
        "æĢ",
        "§"
      ],
      [
        "æĻº",
        "èĥ½"
      ],
      [
        "æĦ",
        "Ł"
      ],
      [
        "åı",
        "ĸ"
      ],
      [
        "ä¹",
        "Ī"
      ],
      [
        "ä¹",
        "Ł"
      ],
      [
        "åĽ",
        "ł"
      ],
      [
        "å",
        "ĸ"
      ],
      [
        "æķ",
        "°"
      ],
      [
        "åĵ",
        "ģ"
      ],
      [
        "è¯",
        "į"
      ],
      [
        "æĬ",
        "Ģ"
      ],
      [
        "ç",
        "Ł"
      ],
      [
        "å",
        "ī"
      ],
      [
        "åı¥",
        "åŃĲ"
      ],
      [
        "æ",
        "ģ"
      ],
      [
        "å¾",
        "Ĺ"
      ],
      [
        "æ°",
        "Ķ"
      ],
      [
        "å¾",
        "Ī"
      ],
      [
        "åĽ",
        "½"
      ],
      [
        "ç",
        "¾"
      ],
      [
        "ç",
        "³"
      ],
      [
        "è",
        "°"
      ],
      [
        "è",
        "Ĭ"
      ],
      [
        "éĢ",
        "ļ"
      ],
      [
        "éľĢ",
        "è¦ģ"
      ],
      [
        "è§",
        "£"
      ],
      [
        "çĤ",
        "¹"
      ],
      [
        "æĥ",
        "ħ"
      ],
      [
        "éĹ®",
        "é¢ĺ"
      ],
      [
        "åº",
        "¦"
      ],
      [
        "ä¹",
        "ĭ"
      ],
      [
        "å",
        "¢"
      ],
      [
        "ç",
        "©"
      ],
      [
        "åĲ",
        "į"
      ],
      [
        "ä»",
        "İ"
      ],
      [
        "ä»¥",
        "ä¸ĭ"
      ],
      [
        "ä¾",
        "Ľ"
      ],
      [
        "å",
        "»"
      ],
      [
        "ç»",
        "ı"
      ],
      [
        "ç",
        "¯"
      ],
      [
        "åħ",
        "¬"
      ],
      [
        "ç",
        "Ŀ"
      ],
      [
        "è¡",
        "¨"
      ],
      [
        "æľ",
        "¯"
      ],
      [
        "éĹ",
        "´"
      ],
      [
        "å¹",
        "´"
      ],
      [
        "è",
        "Ĥ"
      ],
      [
        "èĢ",
        "Į"
      ],
      [
        "åĨ",
        "Ļ"
      ],
      [
        "ä¹",
        "ł"
      ],
      [
        "èī",
        "²"
      ],
      [
        "ç",
        "ĸ"
      ],
      [
        "äºº",
        "å·¥"
      ],
      [
        "å",
        "Ģ"
      ],
      [
        "ä¿",
        "¡"
      ],
      [
        "æıĲ",
        "ä¾Ľ"
      ],
      [
        "å®",
        "ŀ"
      ],
      [
        "æł",
        "¹"
      ],
      [
        "éĩ",
        "ı"
      ],
      [
        "äººå·¥",
        "æĻºèĥ½"
      ],
      [
        "æ",
        "¡"
      ],
      [
        "è®",
        "¡"
      ],
      [
        "ä¸Ģ",
        "äºĽ"
      ],
      [
        "çİ",
        "¯"
      ],
      [
        "æĦ",
        "ı"
      ],
      [
        "é",
        "Ĥ"
      ],
      [
        "å¿",
        "ĥ"
      ],
      [
        "ç¾",
        "İ"
      ],
      [
        "ç",
        "¤"
      ],
      [
        "ç",
        "¨"
      ],
      [
        "èĢ",
        "ħ"
      ],
      [
        "æ",
        "Ł"
      ],
      [
        "è¿Ļ",
        "ä¸ª"
      ],
      [
        "åĲ",
        "Ī"
      ],
      [
        "æŃ",
        "¤"
      ],
      [
        "åİ",
        "»"
      ],
      [
        "å»",
        "º"
      ],
      [
        "ç¯",
        "ĩ"
      ],
      [
        "æī",
        "Ģ"
      ],
      [
        "è¿Ľ",
        "è¡Į"
      ],
      [
        "åĲ",
        "İ"
      ],
      [
        "åĮ",
        "ħ"
      ],
      [
        "ä½",
        "Ĩ"
      ],
      [
        "çĲ",
        "ĥ"
      ],
      [
        "äº",
        "ĭ"
      ],
      [
        "è¯",
        "¥"
      ],
      [
        "çĽ",
        "¸"
      ],
      [
        "æĥ",
        "³"
      ],
      [
        "æł¹",
        "æį®"
      ],
      [
        "è¿",
        "ĺ"
      ],
      [
        "é",
        "¦"
      ],
      [
        "éĩ",
        "Į"
      ],
      [
        "å",
        "ŀ"
      ],
      [
        "ä¸",
        "ļ"
      ],
      [
        "è¿",
        "°"
      ],
      [
        "æ",
        "®"
      ],
      [
        "ç",
        "½"
      ],
      [
        "é",
        "ĥ½"
      ],
      [
        "å½",
        "ĵ"
      ],
      [
        "è",
        "Ĳ"
      ],
      [
        "åħ",
        "¥"
      ],
      [
        "æ´",
        "»"
      ],
      [
        "ç",
        "¡"
      ],
      [
        "ç",
        "ķ"
      ],
      [
        "å¼",
        "ı"
      ],
      [
        "ä¸",
        "İ"
      ],
      [
        "éĿ",
        "ŀ"
      ],
      [
        "æģ",
        "¯"
      ],
      [
        "é£",
        "Ł"
      ],
      [
        "åħ",
        "¨"
      ],
      [
        "é",
        "Ľ"
      ],
      [
        "å¤",
        "ĸ"
      ],
      [
        "å±",
        "ķ"
      ],
      [
        "æŃ",
        "£"
      ],
      [
        "é",
        "ķ"
      ],
      [
        "é",
        "¡"
      ],
      [
        "æ¯",
        "Ķ"
      ],
      [
        "ä»",
        "Ģ"
      ],
      [
        "çĿ",
        "Ģ"
      ],
      [
        "æ°",
        "´"
      ],
      [
        "é",
        "ĥ"
      ],
      [
        "æ",
        "·"
      ],
      [
        "ç",
        "¼"
      ],
      [
        "ä½¿",
        "çĶ¨"
      ],
      [
        "ç",
        "´"
      ],
      [
        "å¸",
        "Ĥ"
      ],
      [
        "çī",
        "¹"
      ],
      [
        "åŃ¦",
        "ä¹ł"
      ],
      [
        "è",
        "·"
      ],
      [
        "è",
        "ģ"
      ],
      [
        "åĸ",
        "ľ"
      ],
      [
        "åı",
        "ĺ"
      ],
      [
        "ä»Ģ",
        "ä¹Ī"
      ],
      [
        "å¼",
        "Ģ"
      ],
      [
        "é",
        "ļ"
      ],
      [
        "è",
        "į"
      ],
      [
        "æĺ¯",
        "ä¸Ģ"
      ],
      [
        "åħ",
        "·"
      ],
      [
        "çľ",
        "ĭ"
      ],
      [
        "è",
        "ĭ"
      ],
      [
        "æĹ",
        "¥"
      ],
      [
        "è",
        "¢"
      ],
      [
        "æ®",
        "µ"
      ],
      [
        "å¸",
        "®"
      ],
      [
        "æ¬",
        "¢"
      ],
      [
        "è®",
        "©"
      ],
      [
        "çĶŁ",
        "æĪĲ"
      ],
      [
        "å",
        "Ŀ"
      ],
      [
        "éģ",
        "ĵ"
      ],
      [
        "åĬ",
        "©"
      ],
      [
        "è¯",
        "´"
      ],
      [
        "ç",
        "¬"
      ],
      [
        "ç¨",
        "ĭ"
      ],
      [
        "çĶµ",
        "å½±"
      ],
      [
        "ç³",
        "»"
      ],
      [
        "åĪ",
        "¶"
      ],
      [
        "ç»",
        "ĵ"
      ],
      [
        "éĤ",
        "£"
      ],
      [
        "æ¡",
        "Ī"
      ],
      [
        "ç",
        "ĥ"
      ],
      [
        "èµ",
        "·"
      ],
      [
        "æĹ",
        "ł"
      ],
      [
        "æĭ",
        "¬"
      ],
      [
        "åĨ",
        "ħ"
      ],
      [
        "å",
        "ķ"
      ],
      [
        "ç¡",
        "®"
      ],
      [
        "æĬĢ",
        "æľ¯"
      ],
      [
        "ç",
        "ĭ"
      ],
      [
        "åī",
        "į"
      ],
      [
        "éĿŀ",
        "å¸¸"
      ],
      [
        "éĥ",
        "¨"
      ],
      [
        "éķ",
        "¿"
      ],
      [
        "åı",
        "Ĭ"
      ],
      [
        "è¯",
        "Ŀ"
      ],
      [
        "æĮ",
        "ģ"
      ],
      [
        "è",
        "º"
      ],
      [
        "ç®",
        "Ģ"
      ],
      [
        "ç§",
        "ĳ"
      ],
      [
        "å°",
        "ĳ"
      ],
      [
        "å¥½",
        "çļĦ"
      ],
      [
        "ä¿¡",
        "æģ¯"
      ],
      [
        "ç®",
        "Ĺ"
      ],
      [
        "é£",
        "İ"
      ],
      [
        "è",
        "¨"
      ],
      [
        "åŀ",
        "ĭ"
      ],
      [
        "å",
        "Ļ"
      ],
      [
        "ä½",
        "ķ"
      ],
      [
        "éĢ",
        "Ĥ"
      ],
      [
        "åģ",
        "¥"
      ],
      [
        "æıĲ",
        "åıĸ"
      ],
      [
        "çĽ",
        "®"
      ],
      [
        "èº",
        "«"
      ],
      [
        "äº",
        "§"
      ],
      [
        "éĢ",
        "ī"
      ],
      [
        "åĽ",
        "ŀ"
      ],
      [
        "è®",
        "®"
      ],
      [
        "é¢",
        "Ĩ"
      ],
      [
        "å¤",
        "Ħ"
      ],
      [
        "åĻ",
        "¨"
      ],
      [
        "åŃ",
        "Ĺ"
      ],
      [
        "ç»Ļ",
        "å®ļ"
      ],
      [
        "åĮ",
        "»"
      ],
      [
        "çŃ",
        "Ķ"
      ],
      [
        "é",
        "ħ"
      ],
      [
        "åį",
        "ķ"
      ],
      [
        "åĬ",
        "¡"
      ],
      [
        "æĶ",
        "¹"
      ],
      [
        "ä»",
        "£"
      ],
      [
        "ä¸Ń",
        "çļĦ"
      ],
      [
        "è",
        "Ļ"
      ],
      [
        "ç",
        "Ī"
      ],
      [
        "é",
        "¥"
      ],
      [
        "é",
        "Ł"
      ],
      [
        "åĪ",
        "«"
      ],
      [
        "åľ",
        "º"
      ],
      [
        "æ",
        "»"
      ],
      [
        "æ¯",
        "ı"
      ],
      [
        "å¢",
        "ĥ"
      ],
      [
        "è¨",
        "Ģ"
      ],
      [
        "åĸľ",
        "æ¬¢"
      ],
      [
        "å¦Ĥ",
        "æŀľ"
      ],
      [
        "ç",
        "Ļ"
      ],
      [
        "åı",
        "Ĺ"
      ],
      [
        "æ",
        "ĳ"
      ],
      [
        "æİ",
        "¨"
      ],
      [
        "ä¸",
        "¤"
      ],
      [
        "åºĶ",
        "çĶ¨"
      ],
      [
        "è¢",
        "«"
      ],
      [
        "æī",
        "ĭ"
      ],
      [
        "æľ",
        "ª"
      ],
      [
        "äº",
        "¤"
      ],
      [
        "æł",
        "ĩ"
      ],
      [
        "ç",
        "ł"
      ],
      [
        "ç¯ĩ",
        "æĸĩç«ł"
      ],
      [
        "åĮħ",
        "æĭ¬"
      ],
      [
        "åŁ",
        "Ł"
      ],
      [
        "æ",
        "¶"
      ],
      [
        "åĪ",
        "©"
      ],
      [
        "è´",
        "¨"
      ],
      [
        "è",
        "Ī"
      ],
      [
        "å·",
        "±"
      ],
      [
        "ä¸",
        "ī"
      ],
      [
        "æµ",
        "·"
      ],
      [
        "å",
        "§"
      ],
      [
        "åĪ",
        "Ľ"
      ],
      [
        "ä»",
        "»"
      ],
      [
        "å®",
        "¹"
      ],
      [
        "èĩª",
        "å·±"
      ],
      [
        "åı¯",
        "èĥ½"
      ],
      [
        "åıĳ",
        "å±ķ"
      ],
      [
        "ç",
        "Ĺ"
      ],
      [
        "æ¸",
        "¸"
      ],
      [
        "ä¾",
        "ĭ"
      ],
      [
        "ä»",
        "¶"
      ],
      [
        "ãĢ",
        "ĭ"
      ],
      [
        "ãĢ",
        "Ĭ"
      ],
      [
        "ç",
        "ģ"
      ],
      [
        "å",
        "£"
      ],
      [
        "éĩį",
        "è¦ģ"
      ],
      [
        "å¹",
        "³"
      ],
      [
        "æ",
        "¨"
      ],
      [
        "æ²",
        "¡"
      ],
      [
        "ä½",
        "į"
      ],
      [
        "åĵ",
        "į"
      ],
      [
        "ä»ĸ",
        "ä»¬"
      ],
      [
        "åĩ",
        "ı"
      ],
      [
        "æ",
        "º"
      ],
      [
        "æĶ",
        "¾"
      ],
      [
        "è§",
        "Ĥ"
      ],
      [
        "é",
        "»"
      ],
      [
        "ç",
        "¥"
      ],
      [
        "äºº",
        "ç±»"
      ],
      [
        "åı",
        "ª"
      ],
      [
        "è®",
        "º"
      ],
      [
        "æ±",
        "Ĥ"
      ],
      [
        "è®",
        "¾"
      ],
      [
        "ä¹",
        "Ĳ"
      ],
      [
        "éĢļ",
        "è¿ĩ"
      ],
      [
        "åº",
        "·"
      ],
      [
        "é¢Ĩ",
        "åŁŁ"
      ],
      [
        "èĬ",
        "Ĥ"
      ],
      [
        "æĢ",
        "»"
      ],
      [
        "çŁ",
        "¥"
      ],
      [
        "é",
        "©"
      ],
      [
        "é",
        "ª"
      ],
      [
        "è¿Ļ",
        "äºĽ"
      ],
      [
        "åĨ",
        "³"
      ],
      [
        "çĸ",
        "Ĺ"
      ],
      [
        "æĸ",
        "Ń"
      ],
      [
        "æ",
        "¼"
      ],
      [
        "æı",
        "ı"
      ],
      [
        "åı",
        "¸"
      ],
      [
        "è¯",
        "Ĩ"
      ],
      [
        "å°",
        "±"
      ],
      [
        "ç»",
        "Ł"
      ],
      [
        "åİ",
        "Ł"
      ],
      [
        "çİ¯",
        "å¢ĥ"
      ],
      [
        "åģ¥",
        "åº·"
      ],
      [
        "æĺ",
        "Ł"
      ],
      [
        "æľ",
        "Ł"
      ],
      [
        "éĶ",
        "®"
      ],
      [
        "æµ",
        "ģ"
      ],
      [
        "å½±",
        "åĵį"
      ],
      [
        "å»º",
        "è®®"
      ],
      [
        "è¿Ļ",
        "ç¯ĩæĸĩç«ł"
      ],
      [
        "éŁ",
        "³"
      ],
      [
        "æķ",
        "Ī"
      ],
      [
        "å¸®",
        "åĬ©"
      ],
      [
        "è",
        "ĥ"
      ],
      [
        "ä¸",
        "ĸ"
      ],
      [
        "ä¹",
        "ī"
      ],
      [
        "å¤",
        "ª"
      ],
      [
        "åħ³",
        "éĶ®"
      ],
      [
        "è",
        "Ħ"
      ],
      [
        "è½",
        "¦"
      ],
      [
        "éĶ",
        "Ļ"
      ],
      [
        "åħ³",
        "äºİ"
      ],
      [
        "å®",
        "ī"
      ],
      [
        "æĹ¶",
        "éĹ´"
      ],
      [
        "è",
        "£"
      ],
      [
        "æĽ´",
        "åĬł"
      ],
      [
        "æ·",
        "±"
      ],
      [
        "æĻ",
        "¯"
      ],
      [
        "çĶ",
        "±"
      ],
      [
        "å¼",
        "º"
      ],
      [
        "æŃ",
        "¥"
      ],
      [
        "ä¸»",
        "è¦ģ"
      ],
      [
        "è",
        "İ"
      ],
      [
        "æķ°",
        "æį®"
      ],
      [
        "åŁ",
        "İ"
      ],
      [
        "æ¨",
        "¡"
      ],
      [
        "è¾",
        "¾"
      ],
      [
        "çĶŁ",
        "æ´»"
      ],
      [
        "åģ",
        "ļ"
      ],
      [
        "æ²¡",
        "æľī"
      ],
      [
        "åĳ",
        "Ĭ"
      ],
      [
        "æŀ",
        "ģ"
      ],
      [
        "å¸",
        "¦"
      ],
      [
        "è¯",
        "ķ"
      ],
      [
        "è",
        "±"
      ],
      [
        "åħ¬",
        "åı¸"
      ],
      [
        "æıı",
        "è¿°"
      ],
      [
        "æĹ",
        "ħ"
      ],
      [
        "è",
        "ı"
      ],
      [
        "åĲ",
        "Ĺ"
      ],
      [
        "èĩª",
        "çĦ¶"
      ],
      [
        "å·",
        "²"
      ],
      [
        "å½",
        "¢"
      ],
      [
        "æľ",
        "į"
      ],
      [
        "æĸ",
        "Ļ"
      ],
      [
        "ç",
        "²"
      ],
      [
        "ç",
        "Į"
      ],
      [
        "è¿",
        "Ĳ"
      ],
      [
        "ç¤",
        "¾"
      ],
      [
        "å¤",
        "Ł"
      ],
      [
        "ï¼",
        "Ľ"
      ],
      [
        "é",
        "Ĵ"
      ],
      [
        "æī",
        "¾"
      ],
      [
        "æł",
        "·"
      ],
      [
        "ä¹",
        "¦"
      ],
      [
        "ä¸į",
        "åĲĮ"
      ],
      [
        "å°ı",
        "æĺİ"
      ],
      [
        "æł",
        "¼"
      ],
      [
        "æľª",
        "æĿ¥"
      ],
      [
        "åĽł",
        "ä¸º"
      ],
      [
        "ä»",
        "Ĭ"
      ],
      [
        "è¿",
        "ĳ"
      ],
      [
        "èĲ",
        "½"
      ],
      [
        "è¯Ń",
        "è¨Ģ"
      ],
      [
        "æº",
        "Ĳ"
      ],
      [
        "æ³",
        "¨"
      ],
      [
        "æĬ",
        "¤"
      ],
      [
        "èĬ",
        "±"
      ],
      [
        "åħ",
        "ī"
      ],
      [
        "é¢",
        "Ħ"
      ],
      [
        "å¥",
        "¹"
      ],
      [
        "åı",
        "£"
      ],
      [
        "é",
        "¤"
      ],
      [
        "åı",
        "ĭ"
      ],
      [
        "æĢ",
        "Ŀ"
      ],
      [
        "ç©",
        "º"
      ],
      [
        "åİ",
        "Ĩ"
      ],
      [
        "çķ",
        "Į"
      ],
      [
        "æĭ",
        "©"
      ],
      [
        "å·¥",
        "ä½ľ"
      ],
      [
        "é¤",
        "Ĳ"
      ],
      [
        "éĢī",
        "æĭ©"
      ],
      [
        "æıĲ",
        "é«ĺ"
      ],
      [
        "æľº",
        "åĻ¨"
      ],
      [
        "æĮ",
        "ĩ"
      ],
      [
        "ĺ",
        "è¦ģ"
      ],
      [
        "å¦Ĥ",
        "ä½ķ"
      ],
      [
        "æ¬",
        "¡"
      ],
      [
        "éĢ",
        "ł"
      ],
      [
        "é",
        "ĵ"
      ],
      [
        "æĪ",
        "·"
      ],
      [
        "é¦",
        "ĸ"
      ],
      [
        "çĪ",
        "±"
      ],
      [
        "çļĦæ",
        "ķ"
      ],
      [
        "ç½",
        "ĳ"
      ],
      [
        "åĲ",
        "Ħ"
      ],
      [
        "åĳ",
        "³"
      ],
      [
        "åķ",
        "Ĩ"
      ],
      [
        "ç»",
        "Ħ"
      ],
      [
        "åĲĮ",
        "æĹ¶"
      ],
      [
        "å¯",
        "¼"
      ],
      [
        "ä¼",
        "ł"
      ],
      [
        "è®¡",
        "ç®Ĺ"
      ],
      [
        "åĩ",
        "ł"
      ],
      [
        "æ¸",
        "ħ"
      ],
      [
        "åĳ",
        "ĺ"
      ],
      [
        "çº",
        "¢"
      ],
      [
        "ç¼",
        "ĸ"
      ],
      [
        "ä¸Ģ",
        "ä¸ĭ"
      ],
      [
        "å®ĥ",
        "ä»¬"
      ],
      [
        "æ",
        "ļ"
      ],
      [
        "æĸ¹",
        "å¼ı"
      ],
      [
        "çŁ",
        "Ń"
      ],
      [
        "åĮ",
        "º"
      ],
      [
        "åĪ",
        "Ĺ"
      ],
      [
        "é",
        "¸"
      ],
      [
        "è¯",
        "Ĺ"
      ],
      [
        "éĩ",
        "ĳ"
      ],
      [
        "å¹",
        "¿"
      ],
      [
        "å¿",
        "«"
      ],
      [
        "åĵ",
        "ª"
      ],
      [
        "ç",
        "¦"
      ],
      [
        "èĢ",
        "ĥ"
      ],
      [
        "ç®",
        "¡"
      ],
      [
        "æĸ¹",
        "æ³ķ"
      ],
      [
        "ï¼",
        "ģ"
      ],
      [
        "åĲ",
        "ĳ"
      ],
      [
        "æ",
        "£"
      ],
      [
        "ç»Ļ",
        "æĪĳ"
      ],
      [
        "çĹ",
        "ħ"
      ],
      [
        "ç¤",
        "º"
      ],
      [
        "éĺ",
        "³"
      ],
      [
        "å±",
        "±"
      ],
      [
        "ä»¥",
        "åıĬ"
      ],
      [
        "æľ",
        "Ī"
      ],
      [
        "æĸ¹",
        "éĿ¢"
      ],
      [
        "åŁ",
        "º"
      ],
      [
        "è®",
        "¤"
      ],
      [
        "åºĶ",
        "è¯¥"
      ],
      [
        "æĺ¯",
        "ä¸Ģä¸ª"
      ],
      [
        "è°",
        "ĥ"
      ],
      [
        "åĩ",
        "Ĩ"
      ],
      [
        "è§",
        "Ĩ"
      ],
      [
        "ç",
        "Ĭ"
      ],
      [
        "ä¼",
        "ĺ"
      ],
      [
        "è¾",
        "ĵ"
      ],
      [
        "ä¾ĭ",
        "å¦Ĥ"
      ],
      [
        "ä»",
        "·"
      ],
      [
        "çº",
        "¦"
      ],
      [
        "åĽł",
        "æŃ¤"
      ],
      [
        "æ¸",
        "©"
      ],
      [
        "çİ¯",
        "ä¿Ŀ"
      ],
      [
        "äºº",
        "ä»¬"
      ],
      [
        "å¤©",
        "æ°Ķ"
      ],
      [
        "ãĢĤ",
        "âĢĿ"
      ],
      [
        "èĥ½",
        "å¤Ł"
      ],
      [
        "å¢",
        "ŀ"
      ],
      [
        "ç©",
        "¶"
      ],
      [
        "é¡",
        "¹"
      ],
      [
        "ä¸",
        "Ķ"
      ],
      [
        "åĪ°",
        "äºĨ"
      ],
      [
        "ç",
        "¿"
      ],
      [
        "å®",
        "Į"
      ],
      [
        "ä¸»",
        "é¢ĺ"
      ],
      [
        "è",
        "Į"
      ],
      [
        "è¯",
        "»"
      ],
      [
        "åĲ",
        "«"
      ],
      [
        "åħ",
        "±"
      ],
      [
        "ä¸ĸ",
        "çķĮ"
      ],
      [
        "æĪ",
        "ĺ"
      ],
      [
        "è¶",
        "Ĭ"
      ],
      [
        "è®",
        "¸"
      ],
      [
        "è¯",
        "Ħ"
      ],
      [
        "å¼",
        "ķ"
      ],
      [
        "åĩı",
        "å°ĳ"
      ],
      [
        "ä¸Ń",
        "æıĲåıĸ"
      ],
      [
        "Ķ",
        "ç©¶"
      ],
      [
        "å§",
        "ĭ"
      ],
      [
        "ç»",
        "Ń"
      ],
      [
        "åĮ»",
        "çĸĹ"
      ],
      [
        "åħ¶",
        "ä»ĸ"
      ],
      [
        "èı",
        "ľ"
      ],
      [
        "ä¸Ń",
        "åĽ½"
      ],
      [
        "æµ",
        "ĭ"
      ],
      [
        "åı",
        "²"
      ],
      [
        "åħ",
        "ĭ"
      ],
      [
        "åĲ",
        "ĥ"
      ],
      [
        "åŁİ",
        "å¸Ĥ"
      ],
      [
        "è½",
        "»"
      ],
      [
        "æİ",
        "¥"
      ],
      [
        "æĳ",
        "ĺè¦ģ"
      ],
      [
        "ç»Ļå®ļ",
        "çļĦ"
      ],
      [
        "è§",
        "ī"
      ],
      [
        "åŃ",
        "ĺ"
      ],
      [
        "åĢ",
        "Ļ"
      ],
      [
        "ä¿Ŀ",
        "æĬ¤"
      ],
      [
        "ä¸¤",
        "ä¸ª"
      ],
      [
        "å¤",
        "ĩ"
      ],
      [
        "åĬ",
        "Ł"
      ],
      [
        "åĪĨ",
        "ç±»"
      ],
      [
        "èµ",
        "Ħ"
      ],
      [
        "çĭ",
        "Ĺ"
      ],
      [
        "åĽŀ",
        "çŃĶ"
      ],
      [
        "å°",
        "½"
      ],
      [
        "å®",
        "¢"
      ],
      [
        "åĨħ",
        "å®¹"
      ],
      [
        "æĬ",
        "¥"
      ],
      [
        "æŀ",
        "Ĳ"
      ],
      [
        "å",
        "ĥ"
      ],
      [
        "å¤Ħ",
        "çĲĨ"
      ],
      [
        "Â",
        "·"
      ],
      [
        "å¤",
        "į"
      ],
      [
        "åı",
        "¤"
      ],
      [
        "è",
        "¥"
      ],
      [
        "èĩ",
        "´"
      ],
      [
        "ç´",
        "ł"
      ],
      [
        "ç«",
        "ĭ"
      ],
      [
        "æĢ",
        "ģ"
      ],
      [
        "çİ",
        "ĩ"
      ],
      [
        "åħ",
        "ĥ"
      ],
      [
        "è¶",
        "£"
      ],
      [
        "æĺ",
        "ĵ"
      ],
      [
        "è¶",
        "³"
      ],
      [
        "ï¼",
        "ī"
      ],
      [
        "æķ",
        "Ļ"
      ],
      [
        "ä¹",
        "°"
      ],
      [
        "èį",
        "Ĳ"
      ],
      [
        "äºĨ",
        "ä¸Ģ"
      ],
      [
        "è",
        "ĳ"
      ],
      [
        "åĲ",
        "¦"
      ],
      [
        "åĪĨ",
        "æŀĲ"
      ],
      [
        "æľ",
        "ĭ"
      ],
      [
        "éª",
        "Į"
      ],
      [
        "è¥",
        "¿"
      ],
      [
        "åħ",
        "Ī"
      ],
      [
        "æĪĸ",
        "èĢħ"
      ],
      [
        "æ",
        "Ĳ"
      ],
      [
        "é¥",
        "®"
      ],
      [
        "æİ",
        "¢"
      ],
      [
        "2",
        "0"
      ],
      [
        "è¯",
        "ī"
      ],
      [
        "æľĭ",
        "åıĭ"
      ],
      [
        "æĸ",
        "¯"
      ],
      [
        "çİ°",
        "åľ¨"
      ],
      [
        "æĶ",
        "¯"
      ],
      [
        "æ»",
        "¡"
      ],
      [
        "ç¬",
        "¬"
      ],
      [
        "åı¥",
        "è¯Ŀ"
      ],
      [
        "ä¸ª",
        "äºº"
      ],
      [
        "è±",
        "¡"
      ],
      [
        "è·",
        "¯"
      ],
      [
        "åĳ",
        "¨"
      ],
      [
        "æİ¨",
        "èįĲ"
      ],
      [
        "çº",
        "¿"
      ],
      [
        "å¤",
        "´"
      ],
      [
        "ç³",
        "ĸ"
      ],
      [
        "ç»",
        "Ĩ"
      ],
      [
        "ä¹ĭ",
        "ä¸Ģ"
      ],
      [
        "ç§",
        "¯"
      ],
      [
        "éĩ",
        "ĩ"
      ],
      [
        "åħ¨",
        "çĲĥ"
      ],
      [
        "çĻ",
        "½"
      ],
      [
        "èģ",
        "Ķ"
      ],
      [
        "æŁ",
        "¥"
      ],
      [
        "å",
        "Ķ"
      ],
      [
        "ç",
        "ħ"
      ],
      [
        "åĥ",
        "ı"
      ],
      [
        "åĽ",
        "¾"
      ],
      [
        "ç¥",
        "ŀ"
      ],
      [
        "æľ",
        "Ľ"
      ],
      [
        "æķ",
        "´"
      ],
      [
        "åįķ",
        "è¯į"
      ],
      [
        "æĸĩ",
        "åĮĸ"
      ],
      [
        "ä½Ĩ",
        "æĺ¯"
      ],
      [
        "æİ",
        "Ĵ"
      ],
      [
        "æŃ",
        "Į"
      ],
      [
        "æĸ",
        "½"
      ],
      [
        "çļĦæ",
        "ĥ"
      ],
      [
        "å",
        "²"
      ],
      [
        "ä»",
        "½"
      ],
      [
        "åı",
        "Ĥ"
      ],
      [
        "è¯",
        "¯"
      ],
      [
        "ä¾",
        "¿"
      ],
      [
        "è®¸",
        "å¤ļ"
      ],
      [
        "åĽ",
        "Ń"
      ],
      [
        "å·²",
        "ç»ı"
      ],
      [
        "åĨ",
        "į"
      ],
      [
        "ç§ĳ",
        "æĬĢ"
      ],
      [
        "å¥",
        "³"
      ],
      [
        "æĽ´",
        "å¤ļ"
      ],
      [
        "åĨ",
        "µ"
      ],
      [
        "çī",
        "ĩ"
      ],
      [
        "æ¬",
        "¾"
      ],
      [
        "åĳĬ",
        "è¯ī"
      ],
      [
        "ç»Ļ",
        "åĩº"
      ],
      [
        "¹",
        "æŀľ"
      ],
      [
        "éĢ",
        "Ł"
      ],
      [
        "ä»Ĭ",
        "å¤©"
      ],
      [
        "èĭ",
        "¹æŀľ"
      ],
      [
        "åĪ",
        "Ļ"
      ],
      [
        "ï¼",
        "Ī"
      ],
      [
        "çł",
        "Ķç©¶"
      ],
      [
        "ä»",
        "ĭ"
      ],
      [
        "åĪ",
        "Ĵ"
      ],
      [
        "åĮ",
        "Ĺ"
      ],
      [
        "ħ",
        "äºĭ"
      ],
      [
        "ä¿Ŀ",
        "æĮģ"
      ],
      [
        "è¿Ĳ",
        "åĬ¨"
      ],
      [
        "éĤ£",
        "ä¹Ī"
      ],
      [
        "è§",
        "Ħ"
      ],
      [
        "çĶ",
        "·"
      ],
      [
        "éĻ",
        "©"
      ],
      [
        "çĥ",
        "Ń"
      ],
      [
        "å¾Ī",
        "å¤ļ"
      ],
      [
        "çľ",
        "Ł"
      ],
      [
        "ç´",
        "¢"
      ],
      [
        "æĶ",
        "¿"
      ],
      [
        "èİ",
        "·"
      ],
      [
        "èĻ",
        "ĳ"
      ],
      [
        "äº",
        "Į"
      ],
      [
        "éĹ",
        "»"
      ],
      [
        "ç³»",
        "ç»Ł"
      ],
      [
        "æŃ¤",
        "å¤ĸ"
      ],
      [
        "åĬ¨",
        "çī©"
      ],
      [
        "æĿ",
        "¡"
      ],
      [
        "æĺ¯ä¸Ģ",
        "ç§į"
      ],
      [
        "å",
        "¡"
      ],
      [
        "æ´»",
        "åĬ¨"
      ],
      [
        "éĹ",
        "¨"
      ],
      [
        "æī",
        "ĵ"
      ],
      [
        "çĽ¸",
        "åħ³"
      ],
      [
        "åı",
        "į"
      ],
      [
        "çļĦ",
        "äºº"
      ],
      [
        "äº§",
        "åĵģ"
      ],
      [
        "åħ¶",
        "ä¸Ń"
      ],
      [
        "1",
        "0"
      ],
      [
        "ç",
        "ı"
      ],
      [
        "æĬ",
        "Ĭ"
      ],
      [
        "åŃ",
        "£"
      ],
      [
        "æ¼",
        "Ķ"
      ],
      [
        "å°",
        "Ŀ"
      ],
      [
        "ç§",
        "°"
      ],
      [
        "éļ",
        "¾"
      ],
      [
        "åº",
        "ı"
      ],
      [
        "æ",
        "¢"
      ],
      [
        "è§",
        "ģ"
      ],
      [
        "çŃĶ",
        "æ¡Ī"
      ],
      [
        "åĢ",
        "¼"
      ],
      [
        "ç²",
        "¾"
      ],
      [
        "èĩªå·±",
        "çļĦ"
      ],
      [
        "æĿ",
        "¾"
      ],
      [
        "åį",
        "ģ"
      ],
      [
        "è§£",
        "åĨ³"
      ],
      [
        "æĶ",
        "¶"
      ],
      [
        "å¸",
        "ĥ"
      ],
      [
        "åı",
        "·"
      ],
      [
        "åİĨ",
        "åı²"
      ],
      [
        "è°",
        "¢"
      ],
      [
        "çĮ",
        "«"
      ],
      [
        "è®",
        "°"
      ],
      [
        "éħ",
        "į"
      ],
      [
        "åĳ",
        "½"
      ],
      [
        "çĽ",
        "´"
      ],
      [
        "ä¿",
        "®"
      ],
      [
        "è´",
        "Ń"
      ],
      [
        "éļ",
        "ı"
      ],
      [
        "åıĺ",
        "åĮĸ"
      ],
      [
        "æľį",
        "åĬ¡"
      ],
      [
        "å®ī",
        "åħ¨"
      ],
      [
        "ï¼ļ",
        "âĢľ"
      ],
      [
        "æ¨¡",
        "åŀĭ"
      ],
      [
        "å",
        "ĭ"
      ],
      [
        "è¾",
        "ĥ"
      ],
      [
        "èĩ",
        "³"
      ],
      [
        "æŀ",
        "Ħ"
      ],
      [
        "åĲ",
        "¬"
      ],
      [
        "èĭ",
        "±"
      ],
      [
        "ç",
        "¢"
      ],
      [
        "ä½",
        "İ"
      ],
      [
        "éĶĻ",
        "è¯¯"
      ],
      [
        "åħ·",
        "ä½ĵ"
      ],
      [
        "ä½¿",
        "åħ¶"
      ],
      [
        "å",
        "¦"
      ],
      [
        "æĪĲ",
        "ä¸º"
      ],
      [
        "æ",
        "ħ"
      ],
      [
        "å¸¦",
        "æĿ¥"
      ],
      [
        "æľºåĻ¨",
        "åŃ¦ä¹ł"
      ],
      [
        "éĩ",
        "Ĭ"
      ],
      [
        "éŁ³",
        "ä¹Ĳ"
      ],
      [
        "è®¡ç®Ĺ",
        "æľº"
      ],
      [
        "ç»",
        "ĥ"
      ],
      [
        "å¤",
        "ı"
      ],
      [
        "è®¾",
        "è®¡"
      ],
      [
        "æŁ",
        "ĵ"
      ],
      [
        "è®",
        "²"
      ],
      [
        "æłĩ",
        "é¢ĺ"
      ],
      [
        "æ¶",
        "Ī"
      ],
      [
        "åĲ",
        "¸"
      ],
      [
        "èĤ",
        "²"
      ],
      [
        "èº«",
        "ä½ĵ"
      ],
      [
        "ç¤¾",
        "ä¼ļ"
      ],
      [
        "åıĳ",
        "çİ°"
      ],
      [
        "çĭ",
        "¬"
      ],
      [
        "äº",
        "«"
      ],
      [
        "åħ³éĶ®",
        "è¯į"
      ],
      [
        "åħ",
        "ħ"
      ],
      [
        "æ²",
        "»"
      ],
      [
        "åħ",
        "´"
      ],
      [
        "æĹł",
        "æ³ķ"
      ],
      [
        "æĻ",
        "ļ"
      ],
      [
        "æĺ¯",
        "ä»Ģä¹Ī"
      ],
      [
        "ä»»",
        "åĬ¡"
      ],
      [
        "æĸ°",
        "çļĦ"
      ],
      [
        "ç§ĳ",
        "åŃ¦"
      ],
      [
        "ä¸",
        "½"
      ],
      [
        "é¦",
        "Ļ"
      ],
      [
        "å¤",
        "±"
      ],
      [
        "çŃ",
        "ĸ"
      ],
      [
        "çļĦæ",
        "Ħ"
      ],
      [
        "æĪĳ",
        "æĥ³"
      ],
      [
        "èĢ",
        "ģ"
      ],
      [
        "ç»",
        "į"
      ],
      [
        "æ",
        "¤"
      ],
      [
        "ä»¥ä¸ĭ",
        "åı¥åŃĲ"
      ],
      [
        "çļĦæĥ",
        "ħ"
      ],
      [
        "ä¸ĭ",
        "éĿ¢"
      ],
      [
        "è§",
        "Ĵ"
      ],
      [
        "é©",
        "¬"
      ],
      [
        "A",
        "I"
      ],
      [
        "åħ·",
        "æľī"
      ],
      [
        "æī",
        "į"
      ],
      [
        "åĳĬè¯ī",
        "æĪĳ"
      ],
      [
        "çĬ",
        "¶"
      ],
      [
        "åį",
        "³"
      ],
      [
        "æ´",
        "ģ"
      ],
      [
        "ãĢĤ",
        "\\"
      ],
      [
        "æĿ",
        "Ĳ"
      ],
      [
        "ä»ĭ",
        "ç»į"
      ],
      [
        "è®¤",
        "ä¸º"
      ],
      [
        "ä¸Ģ",
        "æ®µ"
      ],
      [
        "èµ",
        "Ľ"
      ],
      [
        "çĶŁæĪĲ",
        "ä¸Ģä¸ª"
      ],
      [
        "è½",
        "¬"
      ],
      [
        "æĸĩ",
        "æ¡Ī"
      ],
      [
        "å",
        "¨"
      ],
      [
        "æīĢ",
        "æľī"
      ],
      [
        "ä½ł",
        "çļĦ"
      ],
      [
        "æľĢ",
        "è¿ĳ"
      ],
      [
        "æĢ»",
        "ç»ĵ"
      ],
      [
        "äº",
        "¬"
      ],
      [
        "è¯Ĩ",
        "åĪ«"
      ],
      [
        "éĺ",
        "Ł"
      ],
      [
        "äº",
        "Ķ"
      ],
      [
        "åį",
        "Ĺ"
      ],
      [
        "è¾",
        "ĳ"
      ],
      [
        "çŃī",
        "çŃī"
      ],
      [
        "æĪĳä»¬",
        "çļĦ"
      ],
      [
        "è",
        "Ľ"
      ],
      [
        "è£",
        "ħ"
      ],
      [
        "è®",
        "¨"
      ],
      [
        "è¶",
        "ħ"
      ],
      [
        "æĸ°",
        "éĹ»"
      ],
      [
        "éĽ",
        "Ĩ"
      ],
      [
        "é",
        "²"
      ],
      [
        "è¾ĵ",
        "åħ¥"
      ],
      [
        "èĥ½",
        "åĬĽ"
      ],
      [
        "çļĦ",
        "å½±åĵį"
      ],
      [
        "ç»",
        "´"
      ],
      [
        "å½ĵ",
        "çĦ¶"
      ],
      [
        "åħ",
        "į"
      ],
      [
        "æ¯Ķ",
        "å¦Ĥ"
      ],
      [
        "ä¹ĭ",
        "éĹ´"
      ],
      [
        "éĺ",
        "²"
      ],
      [
        "èĲ",
        "¥"
      ],
      [
        "åĬ",
        "¿"
      ],
      [
        "çļĦ",
        "ä¸Ģ"
      ],
      [
        "åį",
        "İ"
      ],
      [
        "å¼",
        "ł"
      ],
      [
        "éĢĤ",
        "åĲĪ"
      ],
      [
        "æīĢ",
        "ä»¥"
      ],
      [
        "è¡¨",
        "è¾¾"
      ],
      [
        "çļĦ",
        "éĹ®é¢ĺ"
      ],
      [
        "æ°",
        "ĳ"
      ],
      [
        "æį",
        "¢"
      ],
      [
        "åį",
        "ĩ"
      ],
      [
        "è",
        "ħ"
      ],
      [
        "å£",
        "«"
      ],
      [
        "æĹħ",
        "æ¸¸"
      ],
      [
        "äº",
        "Ĵ"
      ],
      [
        "å°Ŀ",
        "è¯ķ"
      ],
      [
        "éĽ",
        "¨"
      ],
      [
        "å¿",
        "ħ"
      ],
      [
        "æĹ",
        "©"
      ],
      [
        "æ",
        "¦Ĥ"
      ],
      [
        "ä¸",
        "ľ"
      ],
      [
        "è¡",
        "£"
      ],
      [
        "èĤ",
        "ī"
      ],
      [
        "é»",
        "ĳ"
      ],
      [
        "çļĦæ",
        "Ĭ"
      ],
      [
        "å°",
        "Ķ"
      ],
      [
        "åİ",
        "ħ"
      ],
      [
        "åľ°",
        "çĲĥ"
      ],
      [
        "åĽ",
        "Ľ"
      ],
      [
        "ç¾İ",
        "åĽ½"
      ],
      [
        "çļĦ",
        "ä¿¡æģ¯"
      ],
      [
        "è¦ģ",
        "æ±Ĥ"
      ],
      [
        "æĥħ",
        "æĦŁ"
      ],
      [
        "å°ı",
        "è¯´"
      ],
      [
        "å¼Ģ",
        "å§ĭ"
      ],
      [
        "ç§",
        "ĭ"
      ],
      [
        "çĲĨ",
        "è§£"
      ],
      [
        "å®ŀ",
        "çİ°"
      ],
      [
        "åĳ",
        "¢"
      ],
      [
        "ï¼Ł",
        "<|"
      ],
      [
        "çļĦ",
        "åı¥åŃĲ"
      ],
      [
        "èĳ",
        "Ĺ"
      ],
      [
        "æĪĳ",
        "çļĦ"
      ],
      [
        "åİ",
        "ĭ"
      ],
      [
        "æŀ",
        "Ĺ"
      ],
      [
        "ç§¯",
        "æŀģ"
      ],
      [
        "å",
        "Ħ"
      ],
      [
        "äºĨ",
        "è§£"
      ],
      [
        "éĻ",
        "¤"
      ],
      [
        "æĭ",
        "ī"
      ],
      [
        "å¯¼",
        "èĩ´"
      ],
      [
        "è¾",
        "¹"
      ],
      [
        "æĺ¯",
        "åĲ¦"
      ],
      [
        "æļ",
        "ĸ"
      ],
      [
        "çļĦ",
        "åºĶçĶ¨"
      ],
      [
        "ç",
        "ª"
      ],
      [
        "å¯¹",
        "äºİ"
      ],
      [
        "çŁ¥",
        "éģĵ"
      ],
      [
        "æŃ£",
        "åľ¨"
      ],
      [
        "ä¸",
        "ĵ"
      ],
      [
        "æ³",
        "Ľ"
      ],
      [
        "è¿",
        "ľ"
      ],
      [
        "èī",
        "º"
      ],
      [
        "æĺ",
        "¾"
      ],
      [
        "å£",
        "°"
      ],
      [
        "ä½ł",
        "åı¯ä»¥"
      ],
      [
        "åĸ",
        "Ħ"
      ],
      [
        "ª",
        "æĸ½"
      ],
      [
        "å¤ª",
        "éĺ³"
      ],
      [
        "è®¡",
        "åĪĴ"
      ],
      [
        "è´",
        "¹"
      ],
      [
        "çĦ¶",
        "åĲİ"
      ],
      [
        "èµ",
        "°"
      ],
      [
        "æĪ",
        "ı"
      ],
      [
        "ä¸į",
        "æĸŃ"
      ],
      [
        "éĻ",
        "į"
      ],
      [
        "ä¸Ģ",
        "èµ·"
      ],
      [
        "ç¦",
        "»"
      ],
      [
        "åĲĦ",
        "ç§į"
      ],
      [
        "èĩª",
        "åĬ¨"
      ],
      [
        "æĪ",
        "¿"
      ],
      [
        "æĽ´",
        "å¥½"
      ],
      [
        "æ",
        "Ĵ"
      ],
      [
        "å¯",
        "»"
      ],
      [
        "åı",
        "°"
      ],
      [
        "åħ",
        "»"
      ],
      [
        "å·",
        "§"
      ],
      [
        "æ®µ",
        "èĲ½"
      ],
      [
        "æ",
        "½"
      ],
      [
        "¡",
        "æŁĵ"
      ],
      [
        "è",
        "ŀ"
      ],
      [
        "å¸",
        "Į"
      ],
      [
        "çħ",
        "§"
      ],
      [
        "è§£",
        "éĩĬ"
      ],
      [
        "ç©",
        "¿"
      ],
      [
        "ç½",
        "®"
      ],
      [
        "åı",
        "¦"
      ],
      [
        "å¾",
        "·"
      ],
      [
        "å¯",
        "Į"
      ],
      [
        "ä¼",
        "¼"
      ],
      [
        "éĶ",
        "Ģ"
      ],
      [
        "åĽ",
        "´"
      ],
      [
        "ç»",
        "Ī"
      ],
      [
        "æĤ¨",
        "åı¯ä»¥"
      ],
      [
        "çĶ¨",
        "æĪ·"
      ],
      [
        "æĦŁ",
        "åĪ°"
      ],
      [
        "çİ",
        "©"
      ],
      [
        "ç¿",
        "»"
      ],
      [
        "åĴ",
        "ĸ"
      ],
      [
        "åŃĺ",
        "åľ¨"
      ],
      [
        "éĻ",
        "ħ"
      ],
      [
        "ä½ľ",
        "ä¸º"
      ],
      [
        "å·",
        "´"
      ],
      [
        "é¥®",
        "é£Ł"
      ],
      [
        "æĺ",
        "¥"
      ],
      [
        "å¹¿",
        "æ³Ľ"
      ],
      [
        "çģ",
        "«"
      ],
      [
        "çļĦæ",
        "°"
      ],
      [
        "å¸Ĥ",
        "åľº"
      ],
      [
        "èĢĥ",
        "èĻĳ"
      ],
      [
        "çĶ",
        "»"
      ],
      [
        "ä»ĸ",
        "çļĦ"
      ],
      [
        "éĢļ",
        "å¸¸"
      ],
      [
        "èĽ",
        "ĭ"
      ],
      [
        "çļĦ",
        "åıĳå±ķ"
      ],
      [
        "æİ",
        "§"
      ],
      [
        "åĦ",
        "¿"
      ],
      [
        "çļĦæ",
        "ł"
      ],
      [
        "å",
        "ł"
      ],
      [
        "ä¸",
        "ĩ"
      ],
      [
        "åķ",
        "¡"
      ],
      [
        "æ³¨",
        "æĦı"
      ],
      [
        "åŃ",
        "©"
      ],
      [
        "èį",
        "ī"
      ],
      [
        "çļĦ",
        "ä¸»è¦ģ"
      ],
      [
        "åĴĸ",
        "åķ¡"
      ],
      [
        "å¯",
        "Ĩ"
      ],
      [
        "ä¸Ģ",
        "ç¯ĩ"
      ],
      [
        "å¤§",
        "çļĦ"
      ],
      [
        "äº",
        "ļ"
      ],
      [
        "ç",
        "Ĩ"
      ],
      [
        "ä¸Ģ",
        "ç§į"
      ],
      [
        "å¦Ĥæŀľ",
        "ä½ł"
      ],
      [
        "æľī",
        "åħ³"
      ],
      [
        "å¹¶",
        "ä¸Ķ"
      ],
      [
        "çļĦ",
        "åľ°"
      ],
      [
        "ĳ",
        "æĪĺ"
      ],
      [
        "æµ",
        "İ"
      ],
      [
        "çİ",
        "ĭ"
      ],
      [
        "æ±",
        "¡æŁĵ"
      ],
      [
        "èŀ",
        "į"
      ],
      [
        "é»",
        "Ħ"
      ],
      [
        "å¾",
        "ĭ"
      ],
      [
        "é£",
        "ŀ"
      ],
      [
        "æĹħ",
        "è¡Į"
      ],
      [
        "çī",
        "Ľ"
      ],
      [
        "äº¤",
        "éĢļ"
      ],
      [
        "ä¹Ł",
        "åı¯ä»¥"
      ],
      [
        "åº",
        "Ĺ"
      ],
      [
        "æ°Ķ",
        "åĢĻ"
      ],
      [
        "çļĦæ",
        "Ģ"
      ],
      [
        "åĪ©",
        "çĶ¨"
      ],
      [
        "è¿ĺ",
        "æľī"
      ],
      [
        "é¤Ĳ",
        "åİħ"
      ],
      [
        "è¯",
        "ģ"
      ],
      [
        "å®",
        "¤"
      ],
      [
        "ç±",
        "³"
      ],
      [
        "è¿Ļ",
        "ç§į"
      ],
      [
        "ç¼ĸ",
        "è¾ĳ"
      ],
      [
        "è§Ĥ",
        "çĤ¹"
      ],
      [
        "å¸",
        "Ī"
      ],
      [
        "é£Ł",
        "çī©"
      ],
      [
        "æĢ",
        "İ"
      ],
      [
        "å®Į",
        "æĪĲ"
      ],
      [
        "èĥ½",
        "æºĲ"
      ],
      [
        "çļĦæķ",
        "°"
      ],
      [
        "å¢ŀ",
        "åĬł"
      ],
      [
        "å¿",
        "µ"
      ],
      [
        "ç",
        "ĳ"
      ],
      [
        "ç®Ģ",
        "åįķ"
      ],
      [
        "éħ",
        "Ĵ"
      ],
      [
        "åħ³",
        "ç³»"
      ],
      [
        "å¤",
        "ľ"
      ],
      [
        "è´¨",
        "éĩı"
      ],
      [
        "æŁ",
        "Ĳ"
      ],
      [
        "ç®¡",
        "çĲĨ"
      ],
      [
        "æĸĩç«ł",
        "ä¸ŃæıĲåıĸ"
      ],
      [
        "åĩł",
        "ä¸ª"
      ],
      [
        "ä»",
        "¤"
      ],
      [
        "æľī",
        "è¶£"
      ],
      [
        "ç«",
        "Ļ"
      ],
      [
        "æī¾",
        "åĪ°"
      ],
      [
        "è´",
        "Ł"
      ],
      [
        "å®",
        "Ŀ"
      ],
      [
        "æ",
        "¹"
      ],
      [
        "ç»ı",
        "æµİ"
      ],
      [
        "äº",
        "ĳ"
      ],
      [
        "åı",
        "Ī"
      ],
      [
        "éĻ",
        "Ĳ"
      ],
      [
        "æ",
        "¿"
      ],
      [
        "ç®Ĺ",
        "æ³ķ"
      ],
      [
        "ç»",
        "¿"
      ],
      [
        "å¸®",
        "æĪĳ"
      ],
      [
        "æĸĩç«ł",
        "ä¸Ń"
      ],
      [
        "åĮħ",
        "åĲ«"
      ],
      [
        "åĩĨ",
        "ç¡®"
      ],
      [
        "æĭ",
        "¥"
      ],
      [
        "ç³ĸ",
        "æŀľ"
      ],
      [
        "æ",
        "ĵ"
      ],
      [
        "ä¸įåĲĮ",
        "çļĦ"
      ],
      [
        "å®",
        "³"
      ],
      [
        "ä»»",
        "ä½ķ"
      ],
      [
        "ãĢĤ",
        "\""
      ],
      [
        "ä¸ī",
        "ä¸ª"
      ],
      [
        "è¯",
        "Ĭ"
      ],
      [
        "è¿Ļ",
        "æ®µ"
      ],
      [
        "è",
        "ĵ"
      ],
      [
        "ç¬",
        "¦"
      ],
      [
        "æİ",
        "ªæĸ½"
      ],
      [
        "çļĦ",
        "æĺ¯"
      ],
      [
        "ä¸",
        "¾"
      ],
      [
        "èģ",
        "Į"
      ],
      [
        "åº",
        "ľ"
      ],
      [
        "æĪĲ",
        "åĬŁ"
      ],
      [
        "èĪ",
        "Ĵ"
      ],
      [
        "æ",
        "©"
      ],
      [
        "å±",
        "ħ"
      ],
      [
        "è¯",
        "ĳ"
      ],
      [
        "å¾",
        "®"
      ],
      [
        "ç®Ģ",
        "æ´ģ"
      ],
      [
        "è¯Ń",
        "æ³ķ"
      ],
      [
        "æł",
        "ĳ"
      ],
      [
        "æķ",
        "ħäºĭ"
      ],
      [
        "åī",
        "§"
      ],
      [
        "æĤ¨",
        "çļĦ"
      ],
      [
        "éĥ½",
        "æĺ¯"
      ],
      [
        "èĩªçĦ¶",
        "è¯Ńè¨Ģ"
      ],
      [
        "æ¯ı",
        "ä¸ª"
      ],
      [
        "æķ",
        "£"
      ],
      [
        "åķĨ",
        "åĵģ"
      ],
      [
        "éĺ",
        "ħ"
      ],
      [
        "åĪ",
        "¤"
      ],
      [
        "è®",
        "Ń"
      ],
      [
        "å¹",
        "²"
      ],
      [
        "è¯·",
        "éĹ®"
      ],
      [
        "å¸Į",
        "æľĽ"
      ],
      [
        "éģ",
        "¿"
      ],
      [
        "é",
        "¾"
      ],
      [
        "å¾",
        "Ģ"
      ],
      [
        "çī",
        "Į"
      ],
      [
        "çļĦ",
        "éĩįè¦ģ"
      ],
      [
        "é",
        "±"
      ],
      [
        "æĪĳä»¬",
        "åı¯ä»¥"
      ],
      [
        "çİ°",
        "ä»£"
      ],
      [
        "ä¼",
        "ģ"
      ],
      [
        "èİ·",
        "å¾Ĺ"
      ],
      [
        "è¡Į",
        "ä¸º"
      ],
      [
        "åĵª",
        "äºĽ"
      ],
      [
        "è¿ĩ",
        "ç¨ĭ"
      ],
      [
        "é±",
        "¼"
      ],
      [
        "ä»¥ä¸ĭ",
        "æĸĩæľ¬"
      ],
      [
        "ç»",
        "ĩ"
      ],
      [
        "é¦",
        "Ĩ"
      ],
      [
        "ç»",
        "ľ"
      ],
      [
        "ç±»",
        "åŀĭ"
      ],
      [
        "çĶ±",
        "äºİ"
      ],
      [
        "çĻ",
        "¾"
      ],
      [
        "ä¸į",
        "èĥ½"
      ],
      [
        "æķĻ",
        "èĤ²"
      ],
      [
        "ä»",
        "ħ"
      ],
      [
        "å¾Ĺ",
        "åĪ°"
      ],
      [
        "æĥħ",
        "åĨµ"
      ],
      [
        "é",
        "º"
      ],
      [
        "ä¼",
        "Ĺ"
      ],
      [
        "æĿ",
        "İ"
      ],
      [
        "æľī",
        "æķĪ"
      ],
      [
        "æĽ´å¥½",
        "åľ°"
      ],
      [
        "æĮģ",
        "ç»Ń"
      ],
      [
        "¾",
        "çĹħ"
      ],
      [
        "è¿",
        "ŀ"
      ],
      [
        "æĿ",
        "¯"
      ],
      [
        "åĮĹ",
        "äº¬"
      ],
      [
        "éĩį",
        "åĨĻ"
      ],
      [
        "æ²",
        "Ļ"
      ],
      [
        "åħ",
        "¸"
      ],
      [
        "äºº",
        "çļĦ"
      ],
      [
        "æľĢ",
        "åĲİ"
      ],
      [
        "äº§",
        "çĶŁ"
      ],
      [
        "ç»ĵ",
        "æŀľ"
      ],
      [
        "å±",
        "ŀ"
      ],
      [
        "é¢Ħ",
        "æµĭ"
      ],
      [
        "èī²",
        "çļĦ"
      ],
      [
        "æĽ",
        "²"
      ],
      [
        "åŃ¦",
        "çĶŁ"
      ],
      [
        "ç¿»",
        "è¯ĳ"
      ],
      [
        "åĪ¶",
        "ä½ľ"
      ],
      [
        "æĽ",
        "¿"
      ],
      [
        "çĶ¨",
        "äºİ"
      ],
      [
        "å¦Ĥæŀľ",
        "æĤ¨"
      ],
      [
        "äºĨ",
        "ä¸Ģä¸ª"
      ],
      [
        "éĩĩ",
        "åıĸ"
      ],
      [
        "çļĦ",
        "çĶµå½±"
      ],
      [
        "é",
        "¼"
      ],
      [
        "é¸",
        "Ł"
      ],
      [
        "åı¯ä»¥",
        "å¸®åĬ©"
      ],
      [
        "éĿ",
        "Ļ"
      ],
      [
        "éĺħ",
        "è¯»"
      ],
      [
        "äººå·¥æĻºèĥ½",
        "æĬĢæľ¯"
      ],
      [
        "åħ¬",
        "åĽŃ"
      ],
      [
        "çļĦ",
        "æĸĩæľ¬"
      ],
      [
        "å¥",
        "ĩ"
      ],
      [
        "åĽ",
        "¢"
      ],
      [
        "å",
        "ª"
      ],
      [
        "èģ",
        "Ĭ"
      ],
      [
        "å®ŀ",
        "ä½ĵ"
      ],
      [
        "åı",
        "¶"
      ],
      [
        "å¥",
        "¶"
      ],
      [
        "0",
        "0"
      ],
      [
        "å¾",
        "ģ"
      ],
      [
        "è¿Ļ",
        "æł·"
      ],
      [
        "çĽ®",
        "æłĩ"
      ],
      [
        "è½",
        "¯"
      ],
      [
        "è¿ĺ",
        "æĺ¯"
      ],
      [
        "èĦ",
        "ĳ"
      ],
      [
        "æ",
        "¥"
      ],
      [
        "çļĦæ",
        "Ļ"
      ],
      [
        "é¢",
        "ľ"
      ],
      [
        "é¸",
        "¡"
      ],
      [
        "åĿ",
        "ĩ"
      ],
      [
        "èµ·",
        "æĿ¥"
      ],
      [
        "èĻ",
        "½"
      ],
      [
        "æĺ",
        "¨"
      ],
      [
        "è¯Ĭ",
        "æĸŃ"
      ],
      [
        "åĲį",
        "ç§°"
      ],
      [
        "åº",
        "Ń"
      ],
      [
        "åı¯èĥ½",
        "ä¼ļ"
      ],
      [
        "æ¿",
        "Ģ"
      ],
      [
        "ç½ĳ",
        "ç»ľ"
      ],
      [
        "æµ",
        "ª"
      ],
      [
        "åıĳ",
        "çĶŁ"
      ],
      [
        "åģ",
        "ĩ"
      ],
      [
        "åĩº",
        "çİ°"
      ],
      [
        "éľĢ",
        "æ±Ĥ"
      ],
      [
        "éĻ",
        "¢"
      ],
      [
        "è¡¨",
        "ç¤º"
      ],
      [
        "çº",
        "§"
      ],
      [
        "æł¹æį®",
        "ç»Ļå®ļçļĦ"
      ],
      [
        "çļĦæĦ",
        "ı"
      ],
      [
        "è·",
        "ĳ"
      ],
      [
        "æ¸¸",
        "æĪı"
      ],
      [
        "ä½ĵ",
        "éªĮ"
      ],
      [
        "åĮ»",
        "çĶŁ"
      ],
      [
        "äº",
        "ī"
      ],
      [
        "ç¬",
        "Ķ"
      ],
      [
        "æĶ¿",
        "åºľ"
      ],
      [
        "çļĦç",
        "¾"
      ],
      [
        "çŁ",
        "³"
      ],
      [
        "å",
        "³"
      ],
      [
        "ç¡®",
        "ä¿Ŀ"
      ],
      [
        "æĪĳ",
        "åı¯ä»¥"
      ],
      [
        "ä½ľ",
        "çĶ¨"
      ],
      [
        "éĥ¨",
        "åĪĨ"
      ],
      [
        "èµĦ",
        "æºĲ"
      ],
      [
        "çĸ",
        "¾çĹħ"
      ],
      [
        "æŃ£",
        "ç¡®"
      ],
      [
        "ä¹Ł",
        "æĺ¯"
      ],
      [
        "ç",
        "ĵ"
      ],
      [
        "é",
        "Ń"
      ],
      [
        "è",
        "Ķ"
      ],
      [
        "èī",
        "¯"
      ],
      [
        "ç¨ĭ",
        "åºı"
      ],
      [
        "éĩįè¦ģ",
        "çļĦ"
      ],
      [
        "çļĦæ",
        "İ"
      ],
      [
        "éģ¿",
[...]
